unsigned char actor_quant_tflite[] = {
  0x20, 0x00, 0x00, 0x00, 0x54, 0x46, 0x4c, 0x33, 0x00, 0x00, 0x00, 0x00,
  0x14, 0x00, 0x20, 0x00, 0x1c, 0x00, 0x18, 0x00, 0x14, 0x00, 0x10, 0x00,
  0x0c, 0x00, 0x00, 0x00, 0x08, 0x00, 0x04, 0x00, 0x14, 0x00, 0x00, 0x00,
  0x1c, 0x00, 0x00, 0x00, 0x80, 0x00, 0x00, 0x00, 0xd8, 0x00, 0x00, 0x00,
  0x88, 0x15, 0x00, 0x00, 0x98, 0x15, 0x00, 0x00, 0xc0, 0x1c, 0x00, 0x00,
  0x03, 0x00, 0x00, 0x00, 0x01, 0x00, 0x00, 0x00, 0x04, 0x00, 0x00, 0x00,
  0xa6, 0xe9, 0xff, 0xff, 0x0c, 0x00, 0x00, 0x00, 0x1c, 0x00, 0x00, 0x00,
  0x38, 0x00, 0x00, 0x00, 0x0f, 0x00, 0x00, 0x00, 0x73, 0x65, 0x72, 0x76,
  0x69, 0x6e, 0x67, 0x5f, 0x64, 0x65, 0x66, 0x61, 0x75, 0x6c, 0x74, 0x00,
  0x01, 0x00, 0x00, 0x00, 0x04, 0x00, 0x00, 0x00, 0x9c, 0xff, 0xff, 0xff,
  0x0b, 0x00, 0x00, 0x00, 0x04, 0x00, 0x00, 0x00, 0x07, 0x00, 0x00, 0x00,
  0x64, 0x65, 0x6e, 0x73, 0x65, 0x5f, 0x32, 0x00, 0x01, 0x00, 0x00, 0x00,
  0x04, 0x00, 0x00, 0x00, 0xfe, 0xea, 0xff, 0xff, 0x04, 0x00, 0x00, 0x00,
  0x07, 0x00, 0x00, 0x00, 0x69, 0x6e, 0x70, 0x75, 0x74, 0x5f, 0x31, 0x00,
  0x02, 0x00, 0x00, 0x00, 0x34, 0x00, 0x00, 0x00, 0x04, 0x00, 0x00, 0x00,
  0xdc, 0xff, 0xff, 0xff, 0x0e, 0x00, 0x00, 0x00, 0x04, 0x00, 0x00, 0x00,
  0x13, 0x00, 0x00, 0x00, 0x43, 0x4f, 0x4e, 0x56, 0x45, 0x52, 0x53, 0x49,
  0x4f, 0x4e, 0x5f, 0x4d, 0x45, 0x54, 0x41, 0x44, 0x41, 0x54, 0x41, 0x00,
  0x08, 0x00, 0x0c, 0x00, 0x08, 0x00, 0x04, 0x00, 0x08, 0x00, 0x00, 0x00,
  0x0d, 0x00, 0x00, 0x00, 0x04, 0x00, 0x00, 0x00, 0x13, 0x00, 0x00, 0x00,
  0x6d, 0x69, 0x6e, 0x5f, 0x72, 0x75, 0x6e, 0x74, 0x69, 0x6d, 0x65, 0x5f,
  0x76, 0x65, 0x72, 0x73, 0x69, 0x6f, 0x6e, 0x00, 0x0f, 0x00, 0x00, 0x00,
  0xac, 0x14, 0x00, 0x00, 0xa4, 0x14, 0x00, 0x00, 0x8c, 0x14, 0x00, 0x00,
  0xf4, 0x13, 0x00, 0x00, 0xe4, 0x12, 0x00, 0x00, 0xd4, 0x02, 0x00, 0x00,
  0xc4, 0x01, 0x00, 0x00, 0xb4, 0x00, 0x00, 0x00, 0xac, 0x00, 0x00, 0x00,
  0xa4, 0x00, 0x00, 0x00, 0x9c, 0x00, 0x00, 0x00, 0x94, 0x00, 0x00, 0x00,
  0x8c, 0x00, 0x00, 0x00, 0x6c, 0x00, 0x00, 0x00, 0x04, 0x00, 0x00, 0x00,
  0xae, 0xeb, 0xff, 0xff, 0x04, 0x00, 0x00, 0x00, 0x58, 0x00, 0x00, 0x00,
  0x0c, 0x00, 0x00, 0x00, 0x08, 0x00, 0x0e, 0x00, 0x08, 0x00, 0x04, 0x00,
  0x08, 0x00, 0x00, 0x00, 0x10, 0x00, 0x00, 0x00, 0x28, 0x00, 0x00, 0x00,
  0x00, 0x00, 0x06, 0x00, 0x08, 0x00, 0x04, 0x00, 0x06, 0x00, 0x00, 0x00,
  0x04, 0x00, 0x00, 0x00, 0x01, 0x00, 0x00, 0x00, 0xeb, 0x03, 0x00, 0x00,
  0x00, 0x00, 0x0a, 0x00, 0x10, 0x00, 0x0c, 0x00, 0x08, 0x00, 0x04, 0x00,
  0x0a, 0x00, 0x00, 0x00, 0x02, 0x00, 0x00, 0x00, 0x02, 0x00, 0x00, 0x00,
  0x04, 0x00, 0x00, 0x00, 0x06, 0x00, 0x00, 0x00, 0x32, 0x2e, 0x31, 0x30,
  0x2e, 0x30, 0x00, 0x00, 0x12, 0xec, 0xff, 0xff, 0x04, 0x00, 0x00, 0x00,
  0x10, 0x00, 0x00, 0x00, 0x31, 0x2e, 0x31, 0x34, 0x2e, 0x30, 0x00, 0x00,
  0x00, 0x00, 0x00, 0x00, 0x00, 0x00, 0x00, 0x00, 0xd4, 0xea, 0xff, 0xff,
  0xd8, 0xea, 0xff, 0xff, 0xdc, 0xea, 0xff, 0xff, 0xe0, 0xea, 0xff, 0xff,
  0xe4, 0xea, 0xff, 0xff, 0x42, 0xec, 0xff, 0xff, 0x04, 0x00, 0x00, 0x00,
  0x00, 0x01, 0x00, 0x00, 0x07, 0xf5, 0x6a, 0x60, 0x55, 0x3d, 0x8b, 0x49,
  0xc4, 0x21, 0xb1, 0xbb, 0x60, 0x44, 0x1e, 0x8e, 0x02, 0x32, 0xaa, 0x2a,
  0x3b, 0x4f, 0x64, 0x39, 0xa8, 0x0f, 0x03, 0xc9, 0xf3, 0x49, 0xa2, 0xeb,
  0x11, 0x1b, 0xae, 0x3b, 0x59, 0x3d, 0xf8, 0xa1, 0xca, 0x9e, 0x2d, 0xf6,
  0xc2, 0x3a, 0xb2, 0x27, 0x97, 0xef, 0xb8, 0xe0, 0xae, 0x1e, 0x5e, 0xce,
  0xa7, 0x02, 0xb5, 0xbd, 0x9c, 0x1e, 0x4e, 0x68, 0x9f, 0xc4, 0xec, 0x13,
  0xa1, 0x11, 0x4c, 0xf6, 0xa4, 0x94, 0x85, 0x1b, 0x11, 0x95, 0xe6, 0x33,
  0x01, 0xbf, 0x09, 0x36, 0x58, 0x98, 0x9f, 0xa9, 0x26, 0xc5, 0x39, 0x58,
  0xc2, 0x64, 0x24, 0xcd, 0x21, 0x13, 0x2b, 0x70, 0x0d, 0x40, 0x23, 0x24,
  0xed, 0xbf, 0x06, 0xa1, 0x10, 0xbd, 0x78, 0xd5, 0x99, 0x92, 0xb8, 0x3f,
  0x6a, 0x3a, 0xf2, 0x2e, 0x82, 0xcd, 0x7b, 0x45, 0xde, 0x57, 0xde, 0x0a,
  0xc9, 0x96, 0xd5, 0x67, 0xeb, 0x94, 0x69, 0x94, 0xc9, 0xef, 0x49, 0x0f,
  0x3a, 0x69, 0x64, 0x41, 0x29, 0x96, 0x46, 0x10, 0x67, 0x9d, 0x9b, 0x54,
  0x1f, 0xe0, 0x60, 0x94, 0xf0, 0xd8, 0x99, 0x95, 0x2c, 0xf8, 0x4e, 0xaa,
  0xd6, 0xd1, 0x68, 0xf8, 0x39, 0xef, 0x3c, 0x27, 0x3e, 0x34, 0x9a, 0x9b,
  0x6f, 0xca, 0x8a, 0xf9, 0xa7, 0x1f, 0x93, 0x31, 0xc9, 0x0c, 0xe0, 0x2d,
  0xc3, 0x18, 0xc8, 0xa3, 0x49, 0xb4, 0xd3, 0x40, 0xe9, 0xa8, 0x6e, 0x71,
  0xa4, 0x40, 0x05, 0xf9, 0x16, 0x20, 0x25, 0x92, 0x65, 0x3d, 0x31, 0x1f,
  0x1a, 0x21, 0x81, 0xda, 0x94, 0x39, 0x32, 0x58, 0x68, 0xef, 0x28, 0xe3,
  0xc3, 0xe7, 0x1e, 0xf5, 0x02, 0x73, 0xd1, 0xcf, 0x35, 0xb7, 0x13, 0x29,
  0xde, 0xe7, 0x33, 0x96, 0x25, 0x27, 0x4d, 0x94, 0xe2, 0x28, 0x1f, 0x45,
  0xd7, 0xce, 0xc7, 0x13, 0x39, 0x9a, 0x99, 0x4e, 0x4e, 0xed, 0xff, 0xff,
  0x04, 0x00, 0x00, 0x00, 0x00, 0x01, 0x00, 0x00, 0x4c, 0x00, 0x00, 0x00,
  0x9d, 0xff, 0xff, 0xff, 0x69, 0x00, 0x00, 0x00, 0xbc, 0xff, 0xff, 0xff,
  0x6f, 0x00, 0x00, 0x00, 0x6c, 0x00, 0x00, 0x00, 0xa5, 0xff, 0xff, 0xff,
  0x9a, 0xff, 0xff, 0xff, 0x9e, 0xff, 0xff, 0xff, 0xa9, 0xff, 0xff, 0xff,
  0x9e, 0xff, 0xff, 0xff, 0x2b, 0x00, 0x00, 0x00, 0x7a, 0xff, 0xff, 0xff,
  0x33, 0x00, 0x00, 0x00, 0x99, 0xff, 0xff, 0xff, 0x90, 0x00, 0x00, 0x00,
  0x84, 0xff, 0xff, 0xff, 0xcd, 0x00, 0x00, 0x00, 0x9a, 0xff, 0xff, 0xff,
  0xaf, 0xff, 0xff, 0xff, 0xfb, 0xff, 0xff, 0xff, 0x5e, 0x00, 0x00, 0x00,
  0xb8, 0xff, 0xff, 0xff, 0xbc, 0xff, 0xff, 0xff, 0x23, 0x00, 0x00, 0x00,
  0x75, 0x00, 0x00, 0x00, 0x41, 0x00, 0x00, 0x00, 0x67, 0x00, 0x00, 0x00,
  0xab, 0xff, 0xff, 0xff, 0x91, 0xff, 0xff, 0xff, 0x77, 0x00, 0x00, 0x00,
  0x91, 0xff, 0xff, 0xff, 0x8b, 0x00, 0x00, 0x00, 0xa0, 0xff, 0xff, 0xff,
  0x5b, 0x00, 0x00, 0x00, 0x40, 0x00, 0x00, 0x00, 0xa2, 0xff, 0xff, 0xff,
  0x1f, 0x00, 0x00, 0x00, 0xf4, 0xff, 0xff, 0xff, 0x3f, 0xff, 0xff, 0xff,
  0x4a, 0x00, 0x00, 0x00, 0x70, 0x00, 0x00, 0x00, 0x78, 0x00, 0x00, 0x00,
  0x14, 0xff, 0xff, 0xff, 0x0e, 0xff, 0xff, 0xff, 0x9b, 0xff, 0xff, 0xff,
  0xa9, 0xff, 0xff, 0xff, 0x99, 0xff, 0xff, 0xff, 0xb8, 0xff, 0xff, 0xff,
  0xb8, 0x00, 0x00, 0x00, 0xd4, 0xff, 0xff, 0xff, 0x41, 0x00, 0x00, 0x00,
  0xba, 0xff, 0xff, 0xff, 0xb6, 0xff, 0xff, 0xff, 0xcc, 0x00, 0x00, 0x00,
  0x6b, 0x00, 0x00, 0x00, 0xac, 0xff, 0xff, 0xff, 0xae, 0xff, 0xff, 0xff,
  0xb2, 0xff, 0xff, 0xff, 0x6b, 0x00, 0x00, 0x00, 0x3b, 0x00, 0x00, 0x00,
  0x70, 0x00, 0x00, 0x00, 0x70, 0x00, 0x00, 0x00, 0x45, 0x00, 0x00, 0x00,
  0x5a, 0xee, 0xff, 0xff, 0x04, 0x00, 0x00, 0x00, 0x00, 0x10, 0x00, 0x00,
  0xae, 0xbb, 0x41, 0xef, 0xc8, 0x5b, 0x97, 0x67, 0x48, 0x5a, 0x96, 0x0a,
  0xa4, 0xe0, 0xc3, 0x2b, 0x3e, 0x17, 0xf1, 0x65, 0x4b, 0x63, 0x1c, 0x10,
  0xea, 0xed, 0x48, 0x11, 0x6c, 0xbe, 0x42, 0xd2, 0xc7, 0x5b, 0xae, 0xa9,
  0xc8, 0x69, 0x35, 0xd5, 0x1d, 0x2f, 0x22, 0xe1, 0x32, 0x45, 0xd3, 0x00,
  0x6b, 0xbd, 0x2e, 0xcb, 0x11, 0xb6, 0x4a, 0x4f, 0x4c, 0xe5, 0x25, 0xba,
  0xa5, 0xde, 0x28, 0x71, 0xce, 0x2e, 0x4e, 0x5f, 0xae, 0x55, 0x11, 0xca,
  0x98, 0xae, 0x2d, 0x3d, 0x6a, 0x9d, 0xc5, 0xaa, 0x50, 0xc5, 0x90, 0xf5,
  0xee, 0xc3, 0xfb, 0x00, 0xe9, 0x9b, 0x05, 0xc7, 0x6e, 0x31, 0xc6, 0xe0,
  0x26, 0xee, 0x9e, 0xa7, 0x04, 0x3b, 0x3b, 0x60, 0xf3, 0xae, 0x0e, 0xfd,
  0xdd, 0xbe, 0x5f, 0xf5, 0xa4, 0x35, 0xca, 0x45, 0x1f, 0xd6, 0x4a, 0xad,
  0x55, 0x60, 0x26, 0xf7, 0xb8, 0x49, 0xb6, 0xaf, 0x4e, 0xf8, 0x53, 0x3b,
  0x12, 0xce, 0xf4, 0x08, 0x4d, 0xa8, 0xab, 0x65, 0x05, 0xae, 0xa9, 0xf3,
  0x2b, 0xb9, 0xe4, 0x14, 0xc1, 0x29, 0x71, 0x9b, 0xcc, 0x79, 0xf1, 0xe3,
  0xc7, 0xb2, 0x0f, 0x94, 0xa5, 0xe6, 0x97, 0xd0, 0x95, 0xa0, 0xf9, 0xa3,
  0x96, 0x0e, 0x23, 0x00, 0xbd, 0xaf, 0x37, 0x45, 0xe4, 0xeb, 0x37, 0x21,
  0xec, 0x3d, 0x3c, 0x41, 0x2d, 0x2c, 0x44, 0x97, 0x49, 0x2f, 0x19, 0x29,
  0x40, 0x12, 0xc1, 0xa4, 0x52, 0xad, 0xaf, 0xda, 0xeb, 0x65, 0x10, 0x49,
  0x25, 0x2a, 0x53, 0xcc, 0xd7, 0x3c, 0xe9, 0x54, 0x39, 0xa1, 0xa0, 0xb1,
  0xba, 0x32, 0xb5, 0xd4, 0xd7, 0x67, 0x17, 0xaa, 0x24, 0xa4, 0x06, 0xe3,
  0x0a, 0xdb, 0x5b, 0x17, 0x5e, 0xda, 0xa6, 0xe1, 0x9e, 0xc9, 0xec, 0xb6,
  0x69, 0x08, 0x04, 0x3d, 0x0e, 0xdd, 0xa3, 0x95, 0xcf, 0xa9, 0x1a, 0x49,
  0xc1, 0x57, 0xf4, 0x3e, 0x47, 0x3b, 0x58, 0x91, 0x94, 0x4a, 0xb6, 0x53,
  0xe1, 0x67, 0xd1, 0x4d, 0xf3, 0xf8, 0x10, 0x53, 0x56, 0xee, 0x90, 0xe6,
  0x50, 0x0e, 0x51, 0xed, 0x61, 0x4b, 0x55, 0xb1, 0x2f, 0x33, 0xaa, 0xf7,
  0xae, 0x52, 0x15, 0xc9, 0xcb, 0x22, 0xe3, 0xb4, 0x1f, 0xeb, 0xf6, 0xab,
  0x81, 0x59, 0xe0, 0xa9, 0x07, 0x04, 0xb9, 0xb2, 0xa3, 0x3f, 0x0f, 0x4f,
  0x42, 0x14, 0x9b, 0x27, 0xf9, 0xa3, 0x6a, 0xac, 0x72, 0xeb, 0x98, 0x0a,
  0xae, 0x2c, 0x8c, 0x33, 0x94, 0x3e, 0x96, 0xc9, 0x52, 0x5e, 0x6a, 0xd8,
  0x62, 0x4c, 0xd3, 0xe2, 0xc2, 0xdb, 0x9d, 0x6c, 0x2e, 0xa9, 0xfb, 0x44,
  0x20, 0xfa, 0xfd, 0xf1, 0xbd, 0x48, 0xaa, 0xd0, 0xc7, 0x44, 0x9d, 0xe7,
  0x1d, 0x0f, 0x1b, 0x3e, 0xe7, 0x08, 0x08, 0x68, 0x2a, 0x5a, 0xd6, 0x48,
  0x60, 0x64, 0xb3, 0xc6, 0x47, 0xd0, 0x94, 0xaf, 0x68, 0x67, 0xb9, 0xfe,
  0xfe, 0xf4, 0x62, 0x3c, 0xc2, 0x9d, 0xb5, 0xf2, 0x9e, 0xa9, 0x6e, 0x4a,
  0xbf, 0x17, 0xde, 0xa9, 0x35, 0xbe, 0x4d, 0x4f, 0xfc, 0xdb, 0xbc, 0x4b,
  0x9a, 0x91, 0x70, 0x34, 0xed, 0xad, 0x04, 0xba, 0x6a, 0xa3, 0x8d, 0x28,
  0xe8, 0x2e, 0xdb, 0x1c, 0x25, 0x10, 0xcc, 0xdb, 0xb9, 0x9b, 0xb7, 0x4f,
  0x0b, 0x23, 0x32, 0x04, 0x8a, 0xd9, 0x5d, 0x47, 0x52, 0x45, 0x58, 0x0a,
  0x95, 0xcd, 0xe6, 0xa0, 0x12, 0xce, 0x5d, 0x73, 0xd4, 0x30, 0xa4, 0x61,
  0x57, 0x46, 0x43, 0xbf, 0x0a, 0x63, 0x0e, 0xfc, 0xa4, 0x2f, 0xf0, 0x22,
  0x2d, 0xe2, 0x3d, 0x39, 0xbc, 0x88, 0x07, 0x6d, 0xb1, 0xca, 0x35, 0xa1,
  0x11, 0x3f, 0x06, 0x32, 0x95, 0xe4, 0x4e, 0xf7, 0xb0, 0x02, 0x1e, 0x0d,
  0x5c, 0x53, 0xc0, 0xdc, 0x32, 0xfe, 0x49, 0xb0, 0x95, 0x36, 0x65, 0x0e,
  0xee, 0x4c, 0x3d, 0xee, 0xc6, 0x2c, 0x9b, 0x5c, 0x8d, 0x11, 0x4c, 0xa4,
  0x41, 0x25, 0x57, 0xb4, 0x2e, 0x0a, 0xbd, 0x05, 0x67, 0xa0, 0x00, 0xbc,
  0xfd, 0x5b, 0xe8, 0xda, 0x29, 0xfd, 0xbf, 0x68, 0xa6, 0xfd, 0x24, 0xeb,
  0x35, 0x8d, 0xcc, 0xe1, 0x4f, 0x51, 0xe5, 0x5b, 0x2b, 0xe9, 0x46, 0x15,
  0xa9, 0x23, 0x39, 0xa0, 0x01, 0xc1, 0xad, 0xb3, 0xd3, 0xe0, 0x50, 0x26,
  0x64, 0xad, 0xf3, 0xb4, 0xc8, 0x3e, 0xb0, 0xa7, 0x05, 0x96, 0x10, 0xc1,
  0xb3, 0x20, 0x36, 0x47, 0xdd, 0xa1, 0xcd, 0x93, 0xe9, 0x9b, 0x72, 0xb1,
  0x0e, 0x62, 0x00, 0xe0, 0xc7, 0x14, 0xf6, 0x3e, 0xff, 0x03, 0x96, 0xab,
  0xa9, 0xd8, 0xdd, 0xe0, 0x1e, 0xb4, 0x47, 0x92, 0x17, 0x3e, 0xe5, 0x0a,
  0x94, 0x65, 0x55, 0x08, 0xe5, 0xcc, 0x29, 0xa2, 0x9d, 0x3b, 0xec, 0xb4,
  0xbb, 0xef, 0x92, 0x46, 0xc7, 0x40, 0x09, 0x5a, 0xa4, 0xa4, 0x00, 0xeb,
  0xd2, 0x3e, 0x0e, 0x33, 0xe7, 0xcc, 0xd3, 0x3b, 0x56, 0x8f, 0x00, 0x65,
  0x4c, 0x4f, 0x50, 0x3a, 0x29, 0x5a, 0xf7, 0x2d, 0x41, 0x56, 0xe0, 0x49,
  0x97, 0x9f, 0x56, 0xdd, 0xfa, 0x89, 0xb5, 0xdd, 0xb7, 0x55, 0xc8, 0x95,
  0x2e, 0x13, 0x94, 0x11, 0xcb, 0xf1, 0xd0, 0x56, 0x14, 0x3d, 0xff, 0xae,
  0x34, 0x1d, 0xe2, 0xbb, 0x94, 0x1b, 0xa1, 0x57, 0xed, 0x0d, 0x35, 0x68,
  0x56, 0xe6, 0x22, 0x22, 0x43, 0x12, 0xa4, 0xa4, 0xc4, 0x96, 0xed, 0xbf,
  0x38, 0x0a, 0xc0, 0xc5, 0xeb, 0xff, 0xeb, 0x19, 0xa5, 0xfa, 0xc3, 0xb2,
  0xbd, 0xd4, 0xe8, 0x26, 0xd0, 0x18, 0x6a, 0x04, 0xf8, 0x48, 0xd2, 0x15,
  0x38, 0xbe, 0x5d, 0xf1, 0x22, 0x39, 0x35, 0x6c, 0xb4, 0x45, 0xa0, 0x14,
  0xce, 0x6f, 0xb0, 0xcb, 0xc2, 0x16, 0xab, 0xa1, 0x3a, 0xe9, 0x48, 0x13,
  0xd8, 0xe3, 0x0b, 0x09, 0x59, 0xb5, 0x18, 0x97, 0x69, 0x4e, 0xd7, 0xab,
  0x5f, 0x71, 0xc1, 0x8d, 0x0d, 0x54, 0xfe, 0x1d, 0xa0, 0x2c, 0x00, 0x66,
  0xa4, 0x0c, 0xa6, 0xee, 0x23, 0xb5, 0x30, 0x2a, 0x9a, 0xb4, 0xc4, 0x67,
  0xa0, 0x06, 0xed, 0x49, 0x66, 0xf4, 0xaa, 0x5d, 0xf9, 0x1e, 0xdc, 0xb0,
  0xcb, 0xa6, 0x40, 0x65, 0x9a, 0xc9, 0xc5, 0x41, 0x5f, 0xd3, 0x48, 0xe5,
  0xa9, 0x97, 0xe1, 0xe2, 0x1b, 0x0c, 0x08, 0x45, 0xe9, 0xf1, 0x0b, 0x2d,
  0x3e, 0xd7, 0xb4, 0x1a, 0x26, 0xba, 0xef, 0x1a, 0x9b, 0x01, 0x69, 0xbe,
  0xb2, 0xbd, 0xe1, 0x0b, 0xd5, 0x59, 0xb3, 0xd4, 0xbb, 0x66, 0x6e, 0x94,
  0x65, 0xfe, 0xbf, 0x91, 0x2f, 0xec, 0x32, 0xf9, 0xc6, 0xfc, 0x0b, 0x96,
  0xd9, 0x03, 0x50, 0x68, 0x13, 0xd3, 0xd6, 0x49, 0x43, 0x5d, 0x2d, 0xf9,
  0x11, 0xaa, 0xc2, 0x25, 0xec, 0x20, 0xa5, 0xea, 0x31, 0x44, 0xff, 0x18,
  0xa5, 0xd4, 0x04, 0xe8, 0x54, 0x1a, 0x4b, 0x62, 0xca, 0x48, 0x6d, 0x4e,
  0x10, 0xcf, 0xf5, 0x4c, 0x18, 0xf2, 0xf0, 0x26, 0xcd, 0xcc, 0x08, 0xc5,
  0x54, 0x95, 0x15, 0x14, 0x4f, 0x0d, 0x08, 0xe4, 0x02, 0x56, 0xdc, 0xb0,
  0x56, 0x1c, 0x2f, 0x36, 0xfb, 0x1b, 0x02, 0x5f, 0x07, 0x19, 0xb3, 0xe5,
  0x94, 0xb6, 0x26, 0xa9, 0xbf, 0xfe, 0x53, 0x2e, 0x5b, 0x2d, 0x3c, 0x4a,
  0x15, 0xeb, 0x9f, 0x72, 0x08, 0xd2, 0x5b, 0xf8, 0x55, 0x53, 0x59, 0xbd,
  0xb7, 0xdb, 0x30, 0x5f, 0x3b, 0x50, 0x5e, 0x9b, 0x62, 0xb4, 0x67, 0x54,
  0x90, 0xb8, 0x4a, 0x32, 0x98, 0x6e, 0x1a, 0x97, 0x5d, 0x0b, 0x1e, 0xe6,
  0x1f, 0x77, 0xc0, 0x48, 0xba, 0x5a, 0xa6, 0x03, 0x72, 0xc6, 0x01, 0xff,
  0x6f, 0x1b, 0x05, 0xbf, 0x00, 0x0a, 0xfb, 0x5f, 0xdd, 0x4e, 0x34, 0xd0,
  0x9a, 0x32, 0x5f, 0xef, 0xd8, 0x63, 0x5b, 0x0d, 0x20, 0x9d, 0x2e, 0x2a,
  0xdf, 0x0f, 0xdd, 0xf1, 0xee, 0x39, 0x11, 0x12, 0xf0, 0xbf, 0x45, 0xd8,
  0x04, 0x25, 0x24, 0x5b, 0xe6, 0xc0, 0x5c, 0xec, 0x35, 0xff, 0x09, 0x00,
  0x28, 0xc5, 0x4e, 0x0c, 0x3c, 0x4e, 0xba, 0xb6, 0x9b, 0xfe, 0x34, 0x15,
  0x3f, 0xe7, 0xa2, 0x8b, 0xf0, 0x9b, 0xd4, 0x75, 0x56, 0xf7, 0x6d, 0xb1,
  0x27, 0x05, 0xd2, 0xf7, 0x53, 0xe3, 0x34, 0x9f, 0x0b, 0x2f, 0x93, 0xc7,
  0xce, 0x22, 0xa8, 0x58, 0xae, 0xf8, 0x4a, 0xf4, 0x2d, 0x57, 0xfc, 0x66,
  0x9f, 0x98, 0xa7, 0x61, 0x5b, 0x28, 0xad, 0xeb, 0x41, 0xfb, 0x6a, 0xd4,
  0xb8, 0x0d, 0x8d, 0x39, 0x16, 0xc6, 0xc1, 0xf7, 0xab, 0xea, 0xcb, 0x9f,
  0x54, 0x08, 0xb2, 0x27, 0x96, 0x4a, 0xd8, 0x98, 0x0c, 0x07, 0xa8, 0x13,
  0xfd, 0xf6, 0xc5, 0x16, 0x31, 0x09, 0xc3, 0xa7, 0x9c, 0x01, 0x2c, 0x03,
  0x1e, 0x6b, 0x60, 0x30, 0xa1, 0x70, 0xbc, 0xf1, 0x09, 0xa9, 0xfd, 0x24,
  0x3e, 0x6b, 0xe5, 0x21, 0x9e, 0x29, 0x37, 0x4a, 0xc2, 0xc8, 0xe0, 0x27,
  0x67, 0x1d, 0x3e, 0x30, 0xc7, 0x05, 0xef, 0x95, 0x46, 0x12, 0xe2, 0xa4,
  0x60, 0x9a, 0xa4, 0xae, 0x64, 0x18, 0xe4, 0x36, 0xd0, 0x20, 0x3d, 0xc4,
  0x44, 0xe7, 0xac, 0xc5, 0xbb, 0xb4, 0xaf, 0x31, 0x00, 0xfb, 0x02, 0xf3,
  0xfa, 0x94, 0x23, 0x00, 0x09, 0x4f, 0x29, 0xeb, 0xca, 0xf3, 0xb9, 0xce,
  0x12, 0xee, 0xea, 0xcc, 0xc9, 0x36, 0x6a, 0x54, 0xa5, 0xd2, 0x72, 0xb0,
  0xe9, 0x17, 0x2e, 0x89, 0x22, 0x3f, 0xdf, 0x44, 0x4b, 0xa1, 0x43, 0x2b,
  0x0b, 0xc0, 0xae, 0xc9, 0xc9, 0x47, 0x2e, 0xa2, 0x90, 0x5f, 0xe9, 0x15,
  0x08, 0x55, 0x52, 0x3a, 0xa9, 0x29, 0x9f, 0xc4, 0x40, 0xdf, 0xc6, 0xa4,
  0x03, 0x6a, 0x53, 0x14, 0x4c, 0xdd, 0xd2, 0xf1, 0x35, 0x3f, 0x47, 0x40,
  0xbf, 0xa4, 0x4d, 0x22, 0x15, 0x61, 0x0c, 0x97, 0x03, 0x59, 0xb3, 0x29,
  0x91, 0x15, 0x21, 0xf5, 0xa4, 0xf0, 0xf3, 0x11, 0x05, 0x5d, 0x3c, 0x17,
  0xa2, 0x2f, 0xe4, 0x32, 0x2e, 0xb6, 0xa8, 0xb8, 0xf4, 0x51, 0x65, 0x11,
  0x60, 0x54, 0xca, 0x2b, 0x4f, 0xca, 0xc5, 0x02, 0x2f, 0x4c, 0x98, 0xa3,
  0x01, 0xc4, 0xa5, 0x55, 0x26, 0xfe, 0x15, 0xb3, 0x54, 0xd3, 0x3b, 0xdf,
  0xc3, 0x22, 0xab, 0x2e, 0x8f, 0x0e, 0x93, 0x0c, 0x64, 0xad, 0x6f, 0xab,
  0x5a, 0xcd, 0xbf, 0x5c, 0xaf, 0x43, 0x00, 0x0f, 0x30, 0x21, 0x03, 0xb5,
  0xa3, 0x55, 0xb2, 0xd1, 0x36, 0xa6, 0x24, 0x28, 0xfc, 0x63, 0x5e, 0x2f,
  0xd7, 0xaf, 0xe7, 0x27, 0x97, 0x20, 0xe5, 0x53, 0x08, 0x6a, 0xf1, 0xa5,
  0xb7, 0x33, 0x9f, 0xc0, 0x03, 0xc6, 0xfb, 0xc4, 0x54, 0xf7, 0xdd, 0xb6,
  0x47, 0xcb, 0x61, 0xc0, 0xcd, 0x16, 0xc6, 0x16, 0x03, 0x00, 0x4e, 0xef,
  0xf7, 0xbc, 0x10, 0xdb, 0x2a, 0xd6, 0x5a, 0xe4, 0xb7, 0xaa, 0x6e, 0x54,
  0xe5, 0xcd, 0x98, 0xc2, 0xbe, 0xe3, 0x49, 0xf7, 0x11, 0xfb, 0xec, 0x3b,
  0x3e, 0xa9, 0x27, 0x9e, 0x9f, 0xa1, 0x27, 0xfb, 0x14, 0x9e, 0x1c, 0x3f,
  0xb6, 0x3f, 0x3a, 0xbe, 0xe3, 0xc7, 0xb7, 0xc7, 0x67, 0xe8, 0xcc, 0x9b,
  0x83, 0x02, 0x2a, 0x8e, 0xd6, 0xa7, 0x60, 0xe4, 0x26, 0xb9, 0xae, 0x6c,
  0x4c, 0x28, 0x29, 0xf9, 0xcf, 0xbf, 0x60, 0x1c, 0xb2, 0xcc, 0xeb, 0x27,
  0xfb, 0x3e, 0x64, 0x35, 0xc2, 0xeb, 0x50, 0x05, 0xb1, 0x61, 0xa2, 0xa6,
  0x54, 0xf4, 0x63, 0xc2, 0xe3, 0x96, 0xac, 0xc8, 0xc2, 0xdd, 0x12, 0x62,
  0x31, 0x55, 0x0c, 0x70, 0x19, 0x0b, 0x54, 0x24, 0x56, 0xf0, 0x34, 0xb9,
  0xd2, 0x6f, 0x08, 0x8e, 0x98, 0x1e, 0x5e, 0x13, 0xb4, 0x63, 0x48, 0xec,
  0x57, 0x37, 0x30, 0x5f, 0x4b, 0x65, 0x19, 0xf0, 0x0e, 0xcf, 0x66, 0x4c,
  0xff, 0xce, 0x6b, 0x17, 0x63, 0xb2, 0x24, 0xd2, 0xda, 0xfe, 0x23, 0x6e,
  0x4c, 0xfd, 0x96, 0x5f, 0x93, 0xad, 0x33, 0xc9, 0x94, 0x62, 0x6d, 0x91,
  0x0d, 0xf6, 0x44, 0xa4, 0xb3, 0x1c, 0x29, 0xe5, 0x1c, 0xba, 0x58, 0x5b,
  0xda, 0x6d, 0x66, 0xaf, 0x51, 0xcb, 0x0e, 0xe0, 0x38, 0xae, 0x09, 0xdb,
  0xdd, 0x46, 0xe3, 0x13, 0xf4, 0xab, 0x25, 0x6b, 0xec, 0x24, 0xb1, 0xe3,
  0xac, 0x44, 0x60, 0x53, 0x33, 0xff, 0x3b, 0xc9, 0x47, 0xab, 0x9d, 0xf1,
  0x5d, 0x4a, 0x9a, 0x3a, 0x14, 0x58, 0xe9, 0xaf, 0x04, 0xf6, 0x22, 0xa3,
  0x0f, 0xa5, 0x5d, 0xff, 0xee, 0xf4, 0x5f, 0x3a, 0xac, 0x6b, 0xaf, 0xbb,
  0x5f, 0x1e, 0xec, 0x5f, 0x62, 0xda, 0xc6, 0xb7, 0xc4, 0x31, 0x2f, 0x93,
  0x2d, 0xa4, 0xd0, 0x63, 0xd4, 0xe7, 0xf6, 0x2c, 0xeb, 0x14, 0x17, 0xcb,
  0xb0, 0xe3, 0x67, 0xc2, 0x5b, 0x36, 0x92, 0x03, 0x99, 0x09, 0xa9, 0x04,
  0x96, 0xac, 0xf8, 0x60, 0x3c, 0x52, 0x9b, 0x24, 0x9a, 0x31, 0xd0, 0xbb,
  0xbe, 0x2f, 0xd1, 0x1b, 0x4d, 0x12, 0xba, 0xbd, 0x2a, 0x44, 0x6e, 0xe4,
  0x16, 0x0d, 0x5a, 0x56, 0x97, 0xdb, 0x95, 0x2f, 0x5f, 0xa1, 0x12, 0x06,
  0x22, 0x09, 0x2c, 0x2c, 0xac, 0xca, 0x07, 0xa7, 0x02, 0x58, 0x98, 0x95,
  0xd6, 0xcc, 0xc8, 0x70, 0xb8, 0xef, 0x54, 0x96, 0x40, 0x60, 0xd0, 0x92,
  0x2a, 0xb8, 0xe9, 0xb3, 0xd9, 0xb8, 0x32, 0xb8, 0x6d, 0xb5, 0xf9, 0x91,
  0x75, 0x14, 0x4e, 0xc5, 0x64, 0xed, 0x4f, 0x08, 0xfa, 0xb8, 0xd0, 0x44,
  0xbc, 0x2d, 0x23, 0x9e, 0xb6, 0x12, 0x2d, 0x1b, 0x65, 0xc4, 0x54, 0xa0,
  0x03, 0x5c, 0x50, 0xf1, 0x95, 0x8f, 0x4c, 0x63, 0x14, 0x98, 0x33, 0xbe,
  0xbe, 0xf5, 0x5e, 0xaf, 0xde, 0xb6, 0xd5, 0xad, 0xe2, 0xdc, 0x8e, 0xf8,
  0xdb, 0x1a, 0x31, 0x22, 0x59, 0xaf, 0xde, 0x0b, 0x54, 0x30, 0x3e, 0xf6,
  0x65, 0x62, 0x25, 0xd2, 0xcb, 0xc0, 0x53, 0x8c, 0x9e, 0xde, 0xb1, 0xd8,
  0xa9, 0xce, 0x5a, 0x17, 0x01, 0x20, 0x4e, 0xb8, 0x35, 0x2a, 0xdd, 0xe7,
  0xfe, 0xc6, 0x19, 0xb0, 0xb0, 0x54, 0xda, 0x49, 0x1e, 0x19, 0xc5, 0x25,
  0x7e, 0x26, 0xbc, 0xf0, 0x8d, 0xba, 0x69, 0x5c, 0xf6, 0x45, 0x0f, 0xa1,
  0xfe, 0x0c, 0x12, 0xaf, 0x11, 0x9f, 0x0c, 0x52, 0x2e, 0x46, 0xff, 0x4d,
  0xe6, 0xf7, 0xae, 0x0a, 0xc3, 0xf7, 0xf2, 0xc7, 0x68, 0x6b, 0x32, 0xd9,
  0x37, 0xce, 0xa5, 0x4b, 0x03, 0x64, 0x62, 0x26, 0x50, 0x28, 0x63, 0xd4,
  0x3e, 0x4d, 0x99, 0xe0, 0x15, 0xd0, 0x26, 0x44, 0xa0, 0x9d, 0xdd, 0x8a,
  0x58, 0xa8, 0xa7, 0xf6, 0x12, 0x40, 0x6a, 0x45, 0x9b, 0xa8, 0x4d, 0x25,
  0xbd, 0x89, 0xb0, 0x5c, 0xb6, 0xd7, 0x95, 0xb3, 0xc5, 0xd6, 0xca, 0xce,
  0xf1, 0x68, 0x30, 0xf5, 0x0c, 0xc6, 0x3c, 0xb4, 0xa3, 0x44, 0x27, 0x60,
  0xd3, 0xaf, 0x1e, 0x38, 0xb8, 0x3e, 0xce, 0xc4, 0xf2, 0x0d, 0x58, 0xa7,
  0x6a, 0xc7, 0x1b, 0xdd, 0x52, 0xf1, 0x03, 0x11, 0xbb, 0x38, 0x22, 0x8e,
  0x2a, 0xfb, 0x5b, 0xeb, 0x5d, 0x32, 0xfe, 0xf0, 0x35, 0xf9, 0x3b, 0x08,
  0x60, 0x68, 0xf5, 0x18, 0xf8, 0xf2, 0x99, 0x14, 0x0c, 0x08, 0x11, 0xa7,
  0xf5, 0xf0, 0x12, 0x4c, 0xf4, 0x43, 0xb4, 0xe3, 0xdf, 0x43, 0x41, 0xc4,
  0x5a, 0x6f, 0xfc, 0x1f, 0x2e, 0xdb, 0xca, 0xb9, 0x41, 0xa4, 0xf4, 0x62,
  0xf8, 0x20, 0xe5, 0xd4, 0x43, 0xe9, 0xc3, 0x05, 0x3a, 0x0d, 0xf6, 0x38,
  0xc4, 0xf0, 0xc8, 0x53, 0xdd, 0x43, 0xf4, 0xb9, 0xd9, 0xbb, 0x51, 0x0e,
  0xc3, 0xef, 0x43, 0x9c, 0x60, 0xa9, 0xfd, 0x05, 0xc8, 0x32, 0xbd, 0x5a,
  0xbf, 0x11, 0x4d, 0xef, 0xaa, 0x0c, 0xe0, 0x8e, 0x60, 0x16, 0x09, 0x13,
  0x2c, 0x8e, 0x92, 0xa0, 0xe7, 0xfb, 0xdc, 0xdd, 0x75, 0xc5, 0xdd, 0x4e,
  0xd6, 0xf5, 0xd3, 0xc0, 0xf6, 0x18, 0x5e, 0xe8, 0xa9, 0x0a, 0x05, 0xa4,
  0x42, 0xf0, 0x45, 0xd5, 0x99, 0xf5, 0xce, 0x18, 0x07, 0xe2, 0x46, 0x63,
  0x08, 0x9b, 0x2e, 0xf1, 0x04, 0x59, 0x0f, 0x72, 0x30, 0x43, 0x3b, 0x41,
  0xf0, 0x73, 0x3e, 0x4c, 0x59, 0xc3, 0x69, 0x4d, 0xf7, 0xe5, 0x33, 0xdf,
  0xc5, 0xcf, 0x45, 0xff, 0xda, 0x3c, 0xc9, 0x08, 0xf2, 0xf1, 0xf5, 0x3a,
  0x50, 0x16, 0x59, 0xb7, 0x9c, 0xf1, 0x35, 0xc4, 0xbe, 0xbb, 0xab, 0x22,
  0xaa, 0xf4, 0x40, 0xbb, 0x19, 0x40, 0x2b, 0xd7, 0x59, 0x8f, 0x0d, 0xeb,
  0x0c, 0xec, 0xb4, 0x57, 0xe6, 0xf1, 0x65, 0x1a, 0x95, 0xbd, 0x98, 0xef,
  0xfa, 0x2b, 0xdc, 0x48, 0x19, 0x91, 0x66, 0x9f, 0x0d, 0x52, 0xbc, 0xfb,
  0x2f, 0x04, 0xf1, 0xfa, 0xe8, 0xda, 0x2e, 0x47, 0xac, 0xe6, 0x44, 0x0c,
  0x09, 0xa2, 0xba, 0x01, 0x31, 0x56, 0x43, 0x6d, 0x25, 0xba, 0xbf, 0xaf,
  0xb5, 0xd9, 0x6b, 0xac, 0x0b, 0x1a, 0xad, 0xcc, 0x57, 0xc8, 0x64, 0x37,
  0x69, 0x2b, 0xdf, 0x18, 0xc2, 0xd2, 0xc7, 0xff, 0x01, 0x97, 0x20, 0x25,
  0x61, 0xfe, 0xc7, 0x03, 0x67, 0x6a, 0x4d, 0x3d, 0xbc, 0xdc, 0x07, 0x23,
  0x75, 0xe3, 0x6d, 0xa8, 0xec, 0xd6, 0x59, 0x49, 0xdf, 0xf4, 0xcc, 0xf8,
  0x08, 0x9d, 0x07, 0xa8, 0x42, 0x35, 0x9c, 0x65, 0xd0, 0xc3, 0x12, 0xa1,
  0xb2, 0xcd, 0x16, 0xb9, 0xd4, 0xbf, 0xc1, 0xe9, 0x9f, 0x6b, 0xd1, 0x20,
  0xee, 0x54, 0xad, 0xf5, 0x5a, 0xd5, 0xae, 0xcd, 0x48, 0x36, 0xb9, 0xa0,
  0x10, 0x02, 0x63, 0x6a, 0x18, 0x08, 0x07, 0xeb, 0xd0, 0x35, 0x3c, 0xf8,
  0x40, 0x22, 0x4a, 0x69, 0xee, 0xd1, 0xeb, 0xc6, 0xb3, 0x73, 0x66, 0xc6,
  0xb6, 0x35, 0x41, 0xd8, 0xa0, 0x9c, 0xe0, 0x29, 0x3e, 0x15, 0xe5, 0xc5,
  0xa7, 0xc6, 0x24, 0xf5, 0xe4, 0x0a, 0x41, 0x62, 0xeb, 0x46, 0xbd, 0xed,
  0x0a, 0xad, 0x0b, 0x2c, 0x0c, 0xce, 0xd1, 0x6f, 0xad, 0xa1, 0xa4, 0xe4,
  0x0f, 0xa1, 0xc6, 0x34, 0x63, 0xfd, 0x07, 0x0d, 0x37, 0x5b, 0x33, 0x22,
  0x32, 0xc8, 0x37, 0x9b, 0x52, 0x6b, 0xca, 0x08, 0xe5, 0x50, 0x8c, 0x1f,
  0xf8, 0x50, 0xe3, 0xd4, 0xce, 0x4e, 0x58, 0xf8, 0xd2, 0x67, 0x2f, 0x08,
  0x58, 0xc6, 0x43, 0x2d, 0x69, 0x61, 0xe8, 0x52, 0x71, 0xf3, 0x00, 0x69,
  0x5b, 0x86, 0x0e, 0xa3, 0x4c, 0x05, 0x3b, 0x57, 0xb9, 0xa0, 0x39, 0xd9,
  0x36, 0x5b, 0xf0, 0x55, 0xfb, 0x34, 0xc3, 0x9d, 0x27, 0x22, 0x49, 0x17,
  0xea, 0xf5, 0xbe, 0xa8, 0xbe, 0x51, 0xe5, 0xeb, 0x01, 0x20, 0x0a, 0xba,
  0x0d, 0x3b, 0x93, 0x67, 0xb3, 0x78, 0x33, 0xaa, 0x36, 0x57, 0x13, 0xb2,
  0x5b, 0x5f, 0xb2, 0xb5, 0xd7, 0x5a, 0x06, 0x3d, 0x14, 0x22, 0xa6, 0x0b,
  0xb0, 0x46, 0x40, 0xde, 0x31, 0xd5, 0x9c, 0xfc, 0x72, 0x6e, 0x2d, 0x9b,
  0xa4, 0xc8, 0x4b, 0xbb, 0x96, 0xab, 0x1f, 0xc8, 0x9f, 0x5d, 0x6b, 0xb5,
  0xb0, 0xe4, 0x1e, 0x3b, 0x8e, 0x19, 0x2d, 0x69, 0x70, 0x6a, 0x65, 0xba,
  0x21, 0xd0, 0xd0, 0x4e, 0xf6, 0x9e, 0x93, 0x6a, 0x1e, 0x3a, 0xe5, 0x6f,
  0xe8, 0x5a, 0x49, 0xa9, 0xbc, 0x28, 0x2e, 0x07, 0x61, 0xe2, 0x5d, 0xb7,
  0xf5, 0xed, 0xa9, 0x63, 0x42, 0xbf, 0x5b, 0x69, 0xb4, 0xcb, 0x3d, 0x50,
  0x26, 0xc5, 0x48, 0x03, 0x09, 0x1c, 0x98, 0xb3, 0xd2, 0xd0, 0xea, 0xb5,
  0xc3, 0xe9, 0x1b, 0x0e, 0xe8, 0x3c, 0x57, 0x42, 0x6a, 0x28, 0xcb, 0xf3,
  0x0f, 0x48, 0x11, 0x42, 0xc9, 0xf7, 0xc5, 0x05, 0xe9, 0x13, 0x1d, 0xbc,
  0x1d, 0x62, 0x96, 0xd8, 0xeb, 0xa9, 0x0f, 0x5e, 0x67, 0x23, 0x62, 0xb0,
  0x33, 0x56, 0xc0, 0xe5, 0x4e, 0xb6, 0x26, 0x3c, 0xe0, 0x87, 0x0b, 0xfe,
  0x3e, 0x51, 0xd9, 0x66, 0x9b, 0x1f, 0x1f, 0xea, 0xb1, 0x4f, 0x0d, 0x2c,
  0x4a, 0x20, 0x28, 0xd8, 0xe5, 0x8f, 0x0c, 0xde, 0x61, 0xaf, 0xe0, 0xbb,
  0xfa, 0xfe, 0xe5, 0x5b, 0x42, 0xda, 0x01, 0x19, 0x1b, 0x6d, 0x62, 0xa7,
  0x05, 0x09, 0x3a, 0xc5, 0xea, 0x09, 0xf3, 0xc8, 0xc0, 0x2e, 0xdf, 0x24,
  0x9b, 0x8f, 0x2b, 0xcf, 0x15, 0x73, 0x23, 0x4e, 0xdf, 0x27, 0x74, 0xa1,
  0xdd, 0x90, 0x4d, 0x0f, 0x97, 0x14, 0x33, 0x28, 0x1c, 0xa9, 0x13, 0xda,
  0xbc, 0xfd, 0x40, 0xe8, 0xbf, 0x4e, 0xe5, 0x39, 0x4e, 0xa7, 0xb8, 0xac,
  0xae, 0x8c, 0x05, 0x20, 0x44, 0x96, 0xc4, 0xcc, 0xc4, 0x46, 0xac, 0x4c,
  0x02, 0xd4, 0x13, 0x5c, 0xb6, 0xef, 0x62, 0xe2, 0xd1, 0x2f, 0xda, 0x35,
  0xe0, 0x59, 0xcf, 0x69, 0x6a, 0x27, 0xb4, 0xe8, 0xd6, 0x68, 0x24, 0xfc,
  0x5a, 0x07, 0x0e, 0xa0, 0x1c, 0x34, 0x5b, 0xe3, 0xcd, 0xdd, 0x39, 0x2c,
  0xee, 0xdf, 0x52, 0xe7, 0xe2, 0xb5, 0x2b, 0xeb, 0xfd, 0x20, 0x8b, 0x15,
  0x42, 0x16, 0x67, 0xb6, 0xd9, 0x2e, 0x92, 0xc3, 0xc2, 0x2c, 0x1d, 0x62,
  0x1f, 0x9b, 0xa9, 0x07, 0xed, 0x74, 0x87, 0xcd, 0x44, 0x3e, 0xe1, 0xb4,
  0x4c, 0x23, 0xba, 0x2c, 0xa4, 0xb2, 0x52, 0xbe, 0x4c, 0x45, 0x51, 0x37,
  0x31, 0x5c, 0xcb, 0x1f, 0x55, 0x9c, 0x65, 0x3c, 0xe5, 0xab, 0x16, 0x62,
  0xd1, 0x39, 0x48, 0xa8, 0x09, 0x5c, 0x5b, 0xf5, 0x9b, 0x63, 0x03, 0xcb,
  0x4e, 0xe8, 0xf0, 0x94, 0x1f, 0x4d, 0x30, 0xe0, 0x1d, 0xc8, 0x44, 0xf7,
  0xb4, 0x2f, 0x12, 0x42, 0xdf, 0xfa, 0xd0, 0xfc, 0x23, 0xce, 0xe5, 0xc3,
  0x3e, 0x27, 0x4d, 0x12, 0x6a, 0x9e, 0x63, 0x61, 0xc2, 0xe6, 0x38, 0x46,
  0xd6, 0x9e, 0x49, 0xf9, 0xd1, 0x9f, 0xd8, 0xeb, 0xb1, 0xf7, 0xd3, 0xbc,
  0xf8, 0xc4, 0x6a, 0x96, 0x6d, 0x0c, 0x96, 0xf4, 0xe3, 0x8c, 0xb9, 0xa2,
  0xfe, 0x5b, 0x8c, 0xed, 0x5a, 0x2d, 0x5a, 0x32, 0x3e, 0x3d, 0x18, 0x3c,
  0x64, 0xa6, 0x36, 0x22, 0x54, 0xae, 0x2e, 0x0d, 0x54, 0x01, 0x3d, 0xd5,
  0xa7, 0xa1, 0x5f, 0x24, 0x44, 0xd6, 0x62, 0x98, 0xe4, 0x00, 0xb7, 0xa1,
  0x31, 0x1a, 0x4d, 0x16, 0xe2, 0xfa, 0xc0, 0x54, 0x57, 0x4c, 0x54, 0x09,
  0x32, 0xce, 0xa1, 0x26, 0x9a, 0xf7, 0xb9, 0x1d, 0x31, 0x41, 0x73, 0x24,
  0xd2, 0x12, 0xbf, 0xab, 0x05, 0x26, 0x9e, 0x00, 0x62, 0x15, 0x48, 0x27,
  0x19, 0x60, 0x09, 0xdc, 0x64, 0xdd, 0x41, 0x9d, 0x54, 0xd3, 0x5b, 0xaf,
  0x1b, 0xe5, 0x09, 0x5d, 0x48, 0x20, 0x6e, 0xfa, 0xdd, 0x57, 0xe4, 0x12,
  0x69, 0x48, 0x31, 0xd2, 0xb1, 0xc1, 0x98, 0xb6, 0xd9, 0x9a, 0x5c, 0x50,
  0x46, 0x2b, 0x46, 0xf1, 0xe5, 0xe9, 0xbe, 0x9c, 0x54, 0x0c, 0xad, 0x11,
  0x2e, 0xb0, 0x14, 0x2e, 0x64, 0x0f, 0x64, 0x72, 0xe0, 0xd1, 0x47, 0xbc,
  0xda, 0xe8, 0x29, 0x44, 0xe4, 0xed, 0xf8, 0x18, 0x8e, 0x5d, 0x65, 0xb7,
  0x03, 0xb6, 0x53, 0x38, 0xd3, 0xbc, 0x69, 0xb0, 0x2e, 0x60, 0x19, 0xd3,
  0xb7, 0x3e, 0xff, 0x10, 0xf8, 0x60, 0x98, 0xb5, 0xeb, 0xbc, 0xac, 0x24,
  0xd6, 0x04, 0x34, 0xde, 0x45, 0xbd, 0xa0, 0xde, 0xb6, 0xc3, 0x1e, 0x07,
  0xd0, 0x4e, 0xae, 0x2f, 0x9a, 0xf9, 0xc1, 0xcf, 0x02, 0xdf, 0x3e, 0x9a,
  0x47, 0xb7, 0x4b, 0x40, 0x2a, 0x24, 0x24, 0x49, 0xba, 0xcf, 0x65, 0xd6,
  0x63, 0x56, 0xd7, 0x3c, 0x15, 0xb3, 0xcb, 0xd0, 0x4c, 0x37, 0xf0, 0x5c,
  0x55, 0x37, 0xa4, 0xc1, 0x07, 0x24, 0x96, 0xcc, 0xe7, 0x95, 0x62, 0x6a,
  0x07, 0xe2, 0x01, 0x00, 0x2f, 0xb7, 0x5c, 0x61, 0x1d, 0x98, 0x01, 0x5b,
  0x15, 0xb0, 0xde, 0x0f, 0x07, 0x60, 0xc4, 0xf2, 0xa3, 0xf1, 0x1b, 0xc6,
  0x43, 0x44, 0x08, 0x3b, 0x58, 0xb2, 0x4f, 0xe2, 0xb6, 0xe2, 0xd9, 0x3a,
  0x5e, 0x4e, 0x5b, 0xe3, 0x01, 0x37, 0x1f, 0xdf, 0xed, 0x64, 0x6b, 0xe7,
  0x9d, 0xa9, 0x07, 0x0e, 0xcc, 0xf3, 0x47, 0xde, 0x5d, 0x4e, 0x43, 0x53,
  0x09, 0x9c, 0xb3, 0x23, 0xc4, 0xb7, 0xea, 0xa7, 0x28, 0x27, 0xe8, 0x95,
  0x77, 0x27, 0xda, 0xe0, 0x09, 0xcd, 0x5c, 0x67, 0x47, 0x3a, 0xec, 0x96,
  0xec, 0xb0, 0xbe, 0x68, 0x21, 0x9e, 0x8f, 0x42, 0x66, 0xb5, 0xf6, 0x24,
  0xed, 0xd3, 0x5b, 0x49, 0x03, 0x10, 0xbc, 0x2d, 0x9d, 0xfd, 0x0d, 0xce,
  0x16, 0xa0, 0xd4, 0xcb, 0x52, 0x68, 0xab, 0xb1, 0xed, 0x8d, 0xe5, 0xd3,
  0x97, 0x93, 0x56, 0x9b, 0xe7, 0x43, 0xf5, 0x2c, 0x1e, 0xf1, 0xcd, 0xdc,
  0x6f, 0xf7, 0x18, 0x0a, 0xc6, 0x16, 0x33, 0x99, 0x40, 0x40, 0x13, 0xf7,
  0xa9, 0x18, 0x24, 0xb5, 0x35, 0xe4, 0x2d, 0x9f, 0xe4, 0x96, 0xa9, 0xf1,
  0x6a, 0x5a, 0x18, 0x91, 0x97, 0x6f, 0x4c, 0x62, 0xdd, 0x1c, 0xb4, 0x14,
  0xae, 0xbe, 0x60, 0x2f, 0x6f, 0x1a, 0x54, 0x03, 0x46, 0xe9, 0x41, 0xe1,
  0x62, 0xd8, 0x57, 0xb0, 0xa9, 0xe3, 0x9b, 0x5b, 0x01, 0x49, 0x99, 0x6d,
  0x64, 0x60, 0x39, 0xaa, 0xe6, 0x0e, 0xaf, 0x31, 0x02, 0xac, 0xe4, 0x28,
  0x03, 0x2a, 0xd0, 0xc1, 0xf7, 0x70, 0xd2, 0xa7, 0xc5, 0x4e, 0x48, 0xec,
  0x32, 0x1a, 0x38, 0x46, 0xc3, 0x62, 0x29, 0xc8, 0xe4, 0x3c, 0xc7, 0xd1,
  0xbb, 0xdd, 0xda, 0x59, 0x18, 0x55, 0xd2, 0xe1, 0xee, 0xa7, 0x0f, 0xfa,
  0x53, 0x37, 0xf7, 0xbc, 0xc4, 0xa2, 0xa0, 0xa6, 0x2b, 0xc5, 0x67, 0x68,
  0x08, 0x55, 0xb1, 0xca, 0x09, 0x09, 0x14, 0xd7, 0x55, 0xef, 0x22, 0x1d,
  0x24, 0x4c, 0x12, 0xba, 0x64, 0xf8, 0xa0, 0xa7, 0xf9, 0xa0, 0xc2, 0xf6,
  0xa7, 0x38, 0x56, 0xce, 0x3c, 0x17, 0x27, 0x22, 0xb9, 0x11, 0xb2, 0x55,
  0x34, 0x52, 0x0c, 0x91, 0x4c, 0x2c, 0xa7, 0x03, 0x10, 0xd8, 0x19, 0x41,
  0x18, 0x09, 0x15, 0xe4, 0x12, 0x14, 0x32, 0xed, 0x56, 0x59, 0xd8, 0xbe,
  0xb4, 0x72, 0x2e, 0x3f, 0x47, 0x94, 0xf1, 0x21, 0x20, 0xb5, 0x61, 0x55,
  0x56, 0xb2, 0xd7, 0x10, 0x34, 0x3d, 0x92, 0xb5, 0x3f, 0x17, 0xdd, 0x14,
  0xe8, 0x4f, 0xa1, 0xa5, 0x5e, 0x0c, 0x6a, 0x48, 0x37, 0x02, 0xff, 0xac,
  0x45, 0x10, 0x72, 0x56, 0xcb, 0x5c, 0xe5, 0xe8, 0x92, 0x1d, 0xea, 0x51,
  0xf0, 0xb0, 0x35, 0x8e, 0x16, 0x03, 0xf1, 0x95, 0xab, 0xc7, 0x9b, 0xfe,
  0xce, 0xcf, 0xb0, 0xd6, 0x9b, 0x4d, 0xe4, 0xbd, 0xe8, 0x71, 0x17, 0x08,
  0xd4, 0x05, 0xe0, 0xdf, 0xdf, 0x42, 0xaa, 0x65, 0xb5, 0x92, 0x48, 0x9a,
  0x13, 0xd2, 0x3d, 0xe2, 0xde, 0xb2, 0xc5, 0xf2, 0xa9, 0xe8, 0xec, 0x8f,
  0x4d, 0x02, 0xc5, 0xfd, 0x6c, 0xe9, 0x23, 0x23, 0x9d, 0xfd, 0xef, 0x70,
  0xd4, 0x3e, 0xc4, 0x45, 0xe1, 0xfa, 0x25, 0x44, 0xf3, 0x68, 0x04, 0x91,
  0xf1, 0xfb, 0x6b, 0xd1, 0xa8, 0x5b, 0xce, 0x62, 0x13, 0x0e, 0x61, 0xfa,
  0x08, 0xf4, 0x13, 0xfa, 0x3e, 0xb1, 0xd7, 0x29, 0xaf, 0x23, 0x96, 0x1f,
  0xfa, 0x31, 0xa2, 0xc9, 0xef, 0x17, 0xd1, 0x48, 0xf6, 0x67, 0xd0, 0xb6,
  0xe0, 0x48, 0xf4, 0x9c, 0xe7, 0x5b, 0x4c, 0x70, 0xdd, 0x3b, 0x23, 0x91,
  0x56, 0xfa, 0xc5, 0x23, 0x35, 0x94, 0xb7, 0xac, 0xe0, 0xd9, 0x5f, 0x97,
  0x4f, 0x9f, 0xee, 0xa1, 0x91, 0xb3, 0xae, 0x00, 0x21, 0xde, 0x30, 0x46,
  0xce, 0xb1, 0xfc, 0x23, 0x4e, 0xe7, 0x51, 0x22, 0x2c, 0xdf, 0x48, 0xb8,
  0x33, 0x49, 0x13, 0x14, 0xb3, 0x04, 0x95, 0x59, 0x05, 0xb4, 0x9f, 0x5f,
  0x0b, 0xbe, 0x61, 0x98, 0xe9, 0xa4, 0xd8, 0x91, 0xdf, 0xb2, 0x57, 0x2b,
  0xc1, 0x8c, 0xb8, 0xeb, 0x3f, 0xce, 0xfd, 0x30, 0x01, 0x66, 0xd0, 0x2a,
  0xf3, 0xf5, 0x17, 0xa3, 0x17, 0x55, 0xb3, 0x24, 0x4d, 0xda, 0xea, 0xc6,
  0x48, 0xf5, 0x8f, 0xd5, 0xb4, 0x04, 0xa2, 0xca, 0xe4, 0xf7, 0xcf, 0xb9,
  0xe2, 0x9a, 0x56, 0xaf, 0x51, 0x18, 0xb6, 0xb5, 0xdb, 0xc8, 0xe5, 0x66,
  0xd6, 0x9a, 0x98, 0x66, 0x52, 0x0b, 0xfe, 0x45, 0x4f, 0xd0, 0xe0, 0x57,
  0x77, 0x70, 0x8c, 0xd0, 0xab, 0x70, 0x2d, 0x43, 0xdf, 0xd6, 0x31, 0x09,
  0x2d, 0xa1, 0xc6, 0x15, 0x26, 0x58, 0x38, 0xe4, 0x3a, 0xf8, 0x5e, 0xbc,
  0x4c, 0x3f, 0x46, 0xec, 0xc6, 0x21, 0x74, 0x0d, 0xae, 0xab, 0xda, 0x36,
  0x5f, 0x62, 0x51, 0x56, 0x11, 0x66, 0x3f, 0x68, 0xc6, 0x2b, 0x18, 0xd6,
  0x44, 0x97, 0xbf, 0xdd, 0xe2, 0x3c, 0x17, 0xa2, 0xe3, 0xf5, 0xa4, 0x21,
  0x1b, 0x29, 0xd2, 0xf4, 0x46, 0xe9, 0xe7, 0x41, 0xe4, 0xe0, 0x50, 0x3b,
  0x1c, 0x6c, 0x14, 0x39, 0x62, 0x5f, 0x36, 0xc5, 0x44, 0xd6, 0xdd, 0x5e,
  0x02, 0x3e, 0xe8, 0x37, 0x3c, 0x6a, 0x5c, 0x03, 0x0a, 0x9b, 0xe0, 0xd5,
  0xab, 0x17, 0x9e, 0xaf, 0xa3, 0xfe, 0xa7, 0x21, 0x96, 0xa6, 0x9a, 0x36,
  0xd3, 0x61, 0xdb, 0xaa, 0x11, 0x70, 0x2a, 0x2f, 0xed, 0xc6, 0x56, 0xc4,
  0x92, 0xac, 0x45, 0x6c, 0x61, 0x57, 0x94, 0x64, 0xe5, 0x44, 0xa6, 0xff,
  0xc1, 0x39, 0xe2, 0x3c, 0xff, 0xbf, 0x02, 0xa6, 0xae, 0xee, 0x0d, 0x16,
  0xc8, 0xf4, 0x5c, 0xf2, 0x32, 0xfc, 0xfe, 0xfa, 0xc8, 0xb9, 0xa9, 0xbf,
  0x0f, 0x36, 0xcf, 0x50, 0x12, 0xc4, 0x38, 0x59, 0x16, 0x19, 0x31, 0x41,
  0x01, 0x03, 0xfe, 0x64, 0xb9, 0x22, 0x74, 0x4a, 0x11, 0xb0, 0xfb, 0x02,
  0x72, 0xca, 0xba, 0x3c, 0x8f, 0x2a, 0x2f, 0x47, 0xf9, 0xef, 0x2f, 0xdb,
  0x2d, 0xce, 0x9c, 0x2b, 0xf1, 0xfe, 0xfd, 0x39, 0x30, 0x61, 0xcb, 0x89,
  0x54, 0xf1, 0x0e, 0x99, 0x71, 0x10, 0x09, 0x9f, 0x08, 0xc5, 0x68, 0xde,
  0xbc, 0xc4, 0xa6, 0xe1, 0xd0, 0x4c, 0x06, 0xd0, 0x4e, 0xc1, 0xce, 0xf6,
  0xec, 0x28, 0x0c, 0xcb, 0xbe, 0xbe, 0xa8, 0xa0, 0x2b, 0xa5, 0x4a, 0xdc,
  0xf8, 0xa2, 0xf7, 0x54, 0x71, 0x52, 0x11, 0x31, 0x68, 0xb2, 0xa1, 0xf7,
  0x55, 0x21, 0xcf, 0xbb, 0x55, 0x15, 0x54, 0xcb, 0xb4, 0x99, 0xa6, 0xcf,
  0xa7, 0x99, 0x57, 0x36, 0x0f, 0xb0, 0xa9, 0x17, 0x34, 0x46, 0x3d, 0x31,
  0xdc, 0xc2, 0xa6, 0xfe, 0x1e, 0x90, 0xc4, 0x4b, 0xd6, 0x9e, 0xa5, 0xcd,
  0x9f, 0x5b, 0x4f, 0x1f, 0xff, 0x0a, 0xe7, 0x6c, 0xa1, 0xea, 0xc2, 0x67,
  0x67, 0xec, 0x22, 0xba, 0xcc, 0xa1, 0xd6, 0x35, 0x9e, 0xf6, 0x95, 0x29,
  0x1e, 0xcf, 0xd8, 0x43, 0x2b, 0xce, 0x39, 0x08, 0x9d, 0xf2, 0xb9, 0x99,
  0xab, 0x48, 0xda, 0x94, 0x19, 0x3a, 0xc4, 0x15, 0x28, 0xfe, 0xc0, 0x8f,
  0x00, 0x4e, 0xd9, 0xff, 0x48, 0x63, 0xd5, 0x42, 0x63, 0xe8, 0xd7, 0x21,
  0xe8, 0x5e, 0x38, 0x42, 0xe7, 0xa7, 0xd9, 0xf1, 0x49, 0x17, 0x6c, 0x43,
  0x69, 0x0b, 0x23, 0x25, 0x68, 0x24, 0x58, 0xa9, 0x5d, 0xb0, 0xb1, 0x10,
  0xd6, 0x16, 0x1b, 0x07, 0x94, 0x46, 0x3a, 0xd9, 0x68, 0xed, 0xe4, 0xa9,
  0x5e, 0x17, 0x5c, 0x2e, 0xb0, 0x70, 0x20, 0xb5, 0x4e, 0x5e, 0xc3, 0x55,
  0x52, 0xff, 0xc7, 0x58, 0xdb, 0xf7, 0x4d, 0x12, 0x16, 0xde, 0x43, 0x3e,
  0x5d, 0x00, 0xa1, 0xa3, 0x49, 0xde, 0xca, 0x4c, 0xef, 0x24, 0xb3, 0x54,
  0xe2, 0xdc, 0x0a, 0xf0, 0x66, 0xfe, 0xff, 0xff, 0x04, 0x00, 0x00, 0x00,
  0x00, 0x01, 0x00, 0x00, 0xf3, 0x00, 0x00, 0x00, 0xe0, 0xfe, 0xff, 0xff,
  0x40, 0x01, 0x00, 0x00, 0xf8, 0xfe, 0xff, 0xff, 0x42, 0x01, 0x00, 0x00,
  0xaf, 0x00, 0x00, 0x00, 0x95, 0xfe, 0xff, 0xff, 0xd3, 0xfe, 0xff, 0xff,
  0x00, 0xff, 0xff, 0xff, 0x5a, 0x01, 0x00, 0x00, 0xe1, 0xfe, 0xff, 0xff,
  0x03, 0x01, 0x00, 0x00, 0xd3, 0x00, 0x00, 0x00, 0x32, 0x01, 0x00, 0x00,
  0xfd, 0xfe, 0xff, 0xff, 0x31, 0x01, 0x00, 0x00, 0xcc, 0xfe, 0xff, 0xff,
  0xf9, 0xfe, 0xff, 0xff, 0xc8, 0xfe, 0xff, 0xff, 0xd0, 0xfe, 0xff, 0xff,
  0xc9, 0xfe, 0xff, 0xff, 0xd7, 0xfe, 0xff, 0xff, 0x3f, 0x01, 0x00, 0x00,
  0x52, 0x01, 0x00, 0x00, 0xf8, 0x00, 0x00, 0x00, 0x23, 0x02, 0x00, 0x00,
  0xb0, 0xfe, 0xff, 0xff, 0xc9, 0xfe, 0xff, 0xff, 0xe1, 0xfe, 0xff, 0xff,
  0xd9, 0x00, 0x00, 0x00, 0xfd, 0xfe, 0xff, 0xff, 0xf2, 0xfe, 0xff, 0xff,
  0xc8, 0xfe, 0xff, 0xff, 0xd8, 0x00, 0x00, 0x00, 0x19, 0x01, 0x00, 0x00,
  0x35, 0x01, 0x00, 0x00, 0x07, 0xff, 0xff, 0xff, 0x1a, 0x01, 0x00, 0x00,
  0x34, 0x01, 0x00, 0x00, 0xe4, 0xfe, 0xff, 0xff, 0x21, 0xff, 0xff, 0xff,
  0xc7, 0xfe, 0xff, 0xff, 0xf7, 0xfe, 0xff, 0xff, 0xbb, 0xfe, 0xff, 0xff,
  0xc6, 0xfe, 0xff, 0xff, 0x41, 0x01, 0x00, 0x00, 0x3a, 0x01, 0x00, 0x00,
  0xda, 0xfe, 0xff, 0xff, 0xd0, 0xfe, 0xff, 0xff, 0xb0, 0x00, 0x00, 0x00,
  0x0f, 0xff, 0xff, 0xff, 0x32, 0x01, 0x00, 0x00, 0xc7, 0xfe, 0xff, 0xff,
  0x2f, 0x01, 0x00, 0x00, 0x20, 0x01, 0x00, 0x00, 0x32, 0x01, 0x00, 0x00,
  0xe9, 0xfe, 0xff, 0xff, 0x08, 0x01, 0x00, 0x00, 0xd8, 0xfe, 0xff, 0xff,
  0xc4, 0xfe, 0xff, 0xff, 0xee, 0xfe, 0xff, 0xff, 0xd7, 0xfe, 0xff, 0xff,
  0xa9, 0x00, 0x00, 0x00, 0x08, 0x01, 0x00, 0x00, 0x72, 0xff, 0xff, 0xff,
  0x04, 0x00, 0x00, 0x00, 0x80, 0x00, 0x00, 0x00, 0x87, 0x36, 0xf5, 0xd4,
  0xa1, 0xef, 0xe0, 0x56, 0x0f, 0x86, 0x62, 0x8c, 0xd3, 0xb0, 0x69, 0xca,
  0x39, 0x28, 0x53, 0x4c, 0x6d, 0xeb, 0xcc, 0xee, 0x41, 0xf7, 0x0f, 0x62,
  0x5b, 0x8a, 0x72, 0xd2, 0x71, 0x61, 0x89, 0xc4, 0x39, 0xc9, 0xcf, 0x69,
  0xda, 0xd8, 0x4f, 0x6f, 0x5a, 0x0b, 0xc2, 0x16, 0xfc, 0x29, 0x93, 0x00,
  0x04, 0xec, 0x28, 0xd7, 0x17, 0xb3, 0x42, 0xe4, 0xb3, 0x1f, 0x94, 0xc3,
  0xb0, 0x2b, 0x68, 0xb0, 0xc5, 0x17, 0xd2, 0xa7, 0xf1, 0x61, 0x85, 0x28,
  0xe5, 0x2a, 0xa2, 0xe7, 0xeb, 0xd8, 0x8b, 0x9a, 0x1f, 0xc4, 0x14, 0xfe,
  0x76, 0xfe, 0xa2, 0xe5, 0x3f, 0x24, 0x9e, 0xaa, 0x21, 0x73, 0xc4, 0x51,
  0x0c, 0x29, 0x6d, 0x5e, 0x98, 0x81, 0x3d, 0x26, 0x2a, 0x5a, 0xd1, 0xfb,
  0xab, 0x7e, 0x87, 0x6e, 0xac, 0x36, 0x64, 0x7e, 0xf0, 0x7f, 0x16, 0xa0,
  0xaa, 0x03, 0x97, 0xf1, 0x00, 0x00, 0x06, 0x00, 0x08, 0x00, 0x04, 0x00,
  0x06, 0x00, 0x00, 0x00, 0x04, 0x00, 0x00, 0x00, 0x08, 0x00, 0x00, 0x00,
  0x0c, 0xff, 0xff, 0xff, 0xf4, 0x00, 0x00, 0x00, 0xc0, 0xfe, 0xff, 0xff,
  0xc4, 0xfe, 0xff, 0xff, 0x0f, 0x00, 0x00, 0x00, 0x4d, 0x4c, 0x49, 0x52,
  0x20, 0x43, 0x6f, 0x6e, 0x76, 0x65, 0x72, 0x74, 0x65, 0x64, 0x2e, 0x00,
  0x01, 0x00, 0x00, 0x00, 0x14, 0x00, 0x00, 0x00, 0x00, 0x00, 0x0e, 0x00,
  0x18, 0x00, 0x14, 0x00, 0x10, 0x00, 0x0c, 0x00, 0x08, 0x00, 0x04, 0x00,
  0x0e, 0x00, 0x00, 0x00, 0x14, 0x00, 0x00, 0x00, 0x1c, 0x00, 0x00, 0x00,
  0x20, 0x01, 0x00, 0x00, 0x24, 0x01, 0x00, 0x00, 0x28, 0x01, 0x00, 0x00,
  0x04, 0x00, 0x00, 0x00, 0x6d, 0x61, 0x69, 0x6e, 0x00, 0x00, 0x00, 0x00,
  0x05, 0x00, 0x00, 0x00, 0xd0, 0x00, 0x00, 0x00, 0x9c, 0x00, 0x00, 0x00,
  0x5c, 0x00, 0x00, 0x00, 0x38, 0x00, 0x00, 0x00, 0x04, 0x00, 0x00, 0x00,
  0x52, 0xff, 0xff, 0xff, 0x10, 0x00, 0x00, 0x00, 0x00, 0x00, 0x00, 0x08,
  0x0c, 0x00, 0x00, 0x00, 0x10, 0x00, 0x00, 0x00, 0x44, 0xff, 0xff, 0xff,
  0x01, 0x00, 0x00, 0x00, 0x0b, 0x00, 0x00, 0x00, 0x03, 0x00, 0x00, 0x00,
  0x0a, 0x00, 0x00, 0x00, 0x02, 0x00, 0x00, 0x00, 0x01, 0x00, 0x00, 0x00,
  0xae, 0xff, 0xff, 0xff, 0x0c, 0x00, 0x00, 0x00, 0x10, 0x00, 0x00, 0x00,
  0x01, 0x00, 0x00, 0x00, 0x01, 0x00, 0x00, 0x00, 0x0a, 0x00, 0x00, 0x00,
  0x01, 0x00, 0x00, 0x00, 0x09, 0x00, 0x00, 0x00, 0xa2, 0xff, 0xff, 0xff,
  0x10, 0x00, 0x00, 0x00, 0x00, 0x00, 0x00, 0x08, 0x0c, 0x00, 0x00, 0x00,
  0x10, 0x00, 0x00, 0x00, 0x94, 0xff, 0xff, 0xff, 0x01, 0x00, 0x00, 0x00,
  0x09, 0x00, 0x00, 0x00, 0x03, 0x00, 0x00, 0x00, 0x08, 0x00, 0x00, 0x00,
  0x04, 0x00, 0x00, 0x00, 0x03, 0x00, 0x00, 0x00, 0x00, 0x00, 0x0a, 0x00,
  0x10, 0x00, 0x0c, 0x00, 0x08, 0x00, 0x04, 0x00, 0x0a, 0x00, 0x00, 0x00,
  0x0c, 0x00, 0x00, 0x00, 0x10, 0x00, 0x00, 0x00, 0x01, 0x00, 0x00, 0x00,
  0x01, 0x00, 0x00, 0x00, 0x08, 0x00, 0x00, 0x00, 0x01, 0x00, 0x00, 0x00,
  0x07, 0x00, 0x00, 0x00, 0x00, 0x00, 0x0e, 0x00, 0x14, 0x00, 0x00, 0x00,
  0x10, 0x00, 0x0c, 0x00, 0x0b, 0x00, 0x04, 0x00, 0x0e, 0x00, 0x00, 0x00,
  0x14, 0x00, 0x00, 0x00, 0x00, 0x00, 0x00, 0x08, 0x10, 0x00, 0x00, 0x00,
  0x14, 0x00, 0x00, 0x00, 0x04, 0x00, 0x04, 0x00, 0x04, 0x00, 0x00, 0x00,
  0x01, 0x00, 0x00, 0x00, 0x07, 0x00, 0x00, 0x00, 0x03, 0x00, 0x00, 0x00,
  0x00, 0x00, 0x00, 0x00, 0x06, 0x00, 0x00, 0x00, 0x05, 0x00, 0x00, 0x00,
  0x01, 0x00, 0x00, 0x00, 0x0b, 0x00, 0x00, 0x00, 0x01, 0x00, 0x00, 0x00,
  0x00, 0x00, 0x00, 0x00, 0x0c, 0x00, 0x00, 0x00, 0x4c, 0x05, 0x00, 0x00,
  0xbc, 0x04, 0x00, 0x00, 0x38, 0x04, 0x00, 0x00, 0xc4, 0x03, 0x00, 0x00,
  0x58, 0x03, 0x00, 0x00, 0xe4, 0x02, 0x00, 0x00, 0x80, 0x02, 0x00, 0x00,
  0xf4, 0x01, 0x00, 0x00, 0x80, 0x01, 0x00, 0x00, 0xf4, 0x00, 0x00, 0x00,
  0x80, 0x00, 0x00, 0x00, 0x04, 0x00, 0x00, 0x00, 0xfa, 0xfa, 0xff, 0xff,
  0x00, 0x00, 0x00, 0x01, 0x18, 0x00, 0x00, 0x00, 0x20, 0x00, 0x00, 0x00,
  0x3c, 0x00, 0x00, 0x00, 0x0c, 0x00, 0x00, 0x00, 0x00, 0x00, 0x00, 0x09,
  0x50, 0x00, 0x00, 0x00, 0x02, 0x00, 0x00, 0x00, 0xff, 0xff, 0xff, 0xff,
  0x02, 0x00, 0x00, 0x00, 0xe4, 0xfa, 0xff, 0xff, 0x08, 0x00, 0x00, 0x00,
  0x10, 0x00, 0x00, 0x00, 0x01, 0x00, 0x00, 0x00, 0x02, 0x00, 0x00, 0x00,
  0x00, 0x00, 0x00, 0x00, 0x01, 0x00, 0x00, 0x00, 0xfd, 0x56, 0x17, 0x3c,
  0x19, 0x00, 0x00, 0x00, 0x53, 0x74, 0x61, 0x74, 0x65, 0x66, 0x75, 0x6c,
  0x50, 0x61, 0x72, 0x74, 0x69, 0x74, 0x69, 0x6f, 0x6e, 0x65, 0x64, 0x43,
  0x61, 0x6c, 0x6c, 0x3a, 0x30, 0x00, 0x00, 0x00, 0x02, 0x00, 0x00, 0x00,
  0x01, 0x00, 0x00, 0x00, 0x02, 0x00, 0x00, 0x00, 0x72, 0xfb, 0xff, 0xff,
  0x00, 0x00, 0x00, 0x01, 0x18, 0x00, 0x00, 0x00, 0x20, 0x00, 0x00, 0x00,
  0x3c, 0x00, 0x00, 0x00, 0x0b, 0x00, 0x00, 0x00, 0x00, 0x00, 0x00, 0x09,
  0x48, 0x00, 0x00, 0x00, 0x02, 0x00, 0x00, 0x00, 0xff, 0xff, 0xff, 0xff,
  0x40, 0x00, 0x00, 0x00, 0x5c, 0xfb, 0xff, 0xff, 0x08, 0x00, 0x00, 0x00,
  0x10, 0x00, 0x00, 0x00, 0x01, 0x00, 0x00, 0x00, 0x00, 0x00, 0x00, 0x00,
  0x00, 0x00, 0x00, 0x00, 0x01, 0x00, 0x00, 0x00, 0x00, 0x00, 0x00, 0x3c,
  0x12, 0x00, 0x00, 0x00, 0x6d, 0x6f, 0x64, 0x65, 0x6c, 0x2f, 0x64, 0x65,
  0x6e, 0x73, 0x65, 0x5f, 0x31, 0x2f, 0x54, 0x61, 0x6e, 0x68, 0x00, 0x00,
  0x02, 0x00, 0x00, 0x00, 0x01, 0x00, 0x00, 0x00, 0x40, 0x00, 0x00, 0x00,
  0xe2, 0xfb, 0xff, 0xff, 0x00, 0x00, 0x00, 0x01, 0x18, 0x00, 0x00, 0x00,
  0x20, 0x00, 0x00, 0x00, 0x3c, 0x00, 0x00, 0x00, 0x0a, 0x00, 0x00, 0x00,
  0x00, 0x00, 0x00, 0x09, 0x60, 0x00, 0x00, 0x00, 0x02, 0x00, 0x00, 0x00,
  0xff, 0xff, 0xff, 0xff, 0x40, 0x00, 0x00, 0x00, 0xcc, 0xfb, 0xff, 0xff,
  0x08, 0x00, 0x00, 0x00, 0x10, 0x00, 0x00, 0x00, 0x01, 0x00, 0x00, 0x00,
  0x03, 0x00, 0x00, 0x00, 0x00, 0x00, 0x00, 0x00, 0x01, 0x00, 0x00, 0x00,
  0xa8, 0xec, 0x0f, 0x3c, 0x2a, 0x00, 0x00, 0x00, 0x6d, 0x6f, 0x64, 0x65,
  0x6c, 0x2f, 0x64, 0x65, 0x6e, 0x73, 0x65, 0x5f, 0x31, 0x2f, 0x4d, 0x61,
  0x74, 0x4d, 0x75, 0x6c, 0x3b, 0x6d, 0x6f, 0x64, 0x65, 0x6c, 0x2f, 0x64,
  0x65, 0x6e, 0x73, 0x65, 0x5f, 0x31, 0x2f, 0x42, 0x69, 0x61, 0x73, 0x41,
  0x64, 0x64, 0x00, 0x00, 0x02, 0x00, 0x00, 0x00, 0x01, 0x00, 0x00, 0x00,
  0x40, 0x00, 0x00, 0x00, 0x6a, 0xfc, 0xff, 0xff, 0x00, 0x00, 0x00, 0x01,
  0x18, 0x00, 0x00, 0x00, 0x20, 0x00, 0x00, 0x00, 0x3c, 0x00, 0x00, 0x00,
  0x09, 0x00, 0x00, 0x00, 0x00, 0x00, 0x00, 0x09, 0x48, 0x00, 0x00, 0x00,
  0x02, 0x00, 0x00, 0x00, 0xff, 0xff, 0xff, 0xff, 0x40, 0x00, 0x00, 0x00,
  0x54, 0xfc, 0xff, 0xff, 0x08, 0x00, 0x00, 0x00, 0x10, 0x00, 0x00, 0x00,
  0x01, 0x00, 0x00, 0x00, 0x00, 0x00, 0x00, 0x00, 0x00, 0x00, 0x00, 0x00,
  0x01, 0x00, 0x00, 0x00, 0x00, 0x00, 0x00, 0x3c, 0x10, 0x00, 0x00, 0x00,
  0x6d, 0x6f, 0x64, 0x65, 0x6c, 0x2f, 0x64, 0x65, 0x6e, 0x73, 0x65, 0x2f,
  0x54, 0x61, 0x6e, 0x68, 0x00, 0x00, 0x00, 0x00, 0x02, 0x00, 0x00, 0x00,
  0x01, 0x00, 0x00, 0x00, 0x40, 0x00, 0x00, 0x00, 0xda, 0xfc, 0xff, 0xff,
  0x00, 0x00, 0x00, 0x01, 0x18, 0x00, 0x00, 0x00, 0x20, 0x00, 0x00, 0x00,
  0x40, 0x00, 0x00, 0x00, 0x08, 0x00, 0x00, 0x00, 0x00, 0x00, 0x00, 0x09,
  0x60, 0x00, 0x00, 0x00, 0x02, 0x00, 0x00, 0x00, 0xff, 0xff, 0xff, 0xff,
  0x40, 0x00, 0x00, 0x00, 0xc4, 0xfc, 0xff, 0xff, 0x08, 0x00, 0x00, 0x00,
  0x14, 0x00, 0x00, 0x00, 0x01, 0x00, 0x00, 0x00, 0x04, 0x00, 0x00, 0x00,
  0x00, 0x00, 0x00, 0x00, 0x00, 0x00, 0x00, 0x00, 0x01, 0x00, 0x00, 0x00,
  0x0b, 0xb9, 0xf3, 0x3b, 0x26, 0x00, 0x00, 0x00, 0x6d, 0x6f, 0x64, 0x65,
  0x6c, 0x2f, 0x64, 0x65, 0x6e, 0x73, 0x65, 0x2f, 0x4d, 0x61, 0x74, 0x4d,
  0x75, 0x6c, 0x3b, 0x6d, 0x6f, 0x64, 0x65, 0x6c, 0x2f, 0x64, 0x65, 0x6e,
  0x73, 0x65, 0x2f, 0x42, 0x69, 0x61, 0x73, 0x41, 0x64, 0x64, 0x00, 0x00,
  0x02, 0x00, 0x00, 0x00, 0x01, 0x00, 0x00, 0x00, 0x40, 0x00, 0x00, 0x00,
  0xee, 0xfd, 0xff, 0xff, 0x00, 0x00, 0x00, 0x01, 0x14, 0x00, 0x00, 0x00,
  0x30, 0x00, 0x00, 0x00, 0x07, 0x00, 0x00, 0x00, 0x00, 0x00, 0x00, 0x09,
  0x3c, 0x00, 0x00, 0x00, 0x3c, 0xfd, 0xff, 0xff, 0x08, 0x00, 0x00, 0x00,
  0x10, 0x00, 0x00, 0x00, 0x01, 0x00, 0x00, 0x00, 0x00, 0x00, 0x00, 0x00,
  0x00, 0x00, 0x00, 0x00, 0x01, 0x00, 0x00, 0x00, 0xe3, 0x1f, 0x25, 0x3b,
  0x12, 0x00, 0x00, 0x00, 0x6d, 0x6f, 0x64, 0x65, 0x6c, 0x2f, 0x64, 0x65,
  0x6e, 0x73, 0x65, 0x2f, 0x4d, 0x61, 0x74, 0x4d, 0x75, 0x6c, 0x00, 0x00,
  0x02, 0x00, 0x00, 0x00, 0x40, 0x00, 0x00, 0x00, 0x04, 0x00, 0x00, 0x00,
  0x4e, 0xfe, 0xff, 0xff, 0x00, 0x00, 0x00, 0x01, 0x14, 0x00, 0x00, 0x00,
  0x34, 0x00, 0x00, 0x00, 0x06, 0x00, 0x00, 0x00, 0x00, 0x00, 0x00, 0x02,
  0x50, 0x00, 0x00, 0x00, 0x9c, 0xfd, 0xff, 0xff, 0x08, 0x00, 0x00, 0x00,
  0x14, 0x00, 0x00, 0x00, 0x01, 0x00, 0x00, 0x00, 0x00, 0x00, 0x00, 0x00,
  0x00, 0x00, 0x00, 0x00, 0x00, 0x00, 0x00, 0x00, 0x01, 0x00, 0x00, 0x00,
  0x86, 0x9f, 0x2d, 0x38, 0x22, 0x00, 0x00, 0x00, 0x6d, 0x6f, 0x64, 0x65,
  0x6c, 0x2f, 0x64, 0x65, 0x6e, 0x73, 0x65, 0x2f, 0x42, 0x69, 0x61, 0x73,
  0x41, 0x64, 0x64, 0x2f, 0x52, 0x65, 0x61, 0x64, 0x56, 0x61, 0x72, 0x69,
  0x61, 0x62, 0x6c, 0x65, 0x4f, 0x70, 0x00, 0x00, 0x01, 0x00, 0x00, 0x00,
  0x40, 0x00, 0x00, 0x00, 0xbe, 0xfe, 0xff, 0xff, 0x00, 0x00, 0x00, 0x01,
  0x14, 0x00, 0x00, 0x00, 0x34, 0x00, 0x00, 0x00, 0x05, 0x00, 0x00, 0x00,
  0x00, 0x00, 0x00, 0x09, 0x44, 0x00, 0x00, 0x00, 0x0c, 0xfe, 0xff, 0xff,
  0x08, 0x00, 0x00, 0x00, 0x14, 0x00, 0x00, 0x00, 0x01, 0x00, 0x00, 0x00,
  0x00, 0x00, 0x00, 0x00, 0x00, 0x00, 0x00, 0x00, 0x00, 0x00, 0x00, 0x00,
  0x01, 0x00, 0x00, 0x00, 0x24, 0x6e, 0xfb, 0x3a, 0x14, 0x00, 0x00, 0x00,
  0x6d, 0x6f, 0x64, 0x65, 0x6c, 0x2f, 0x64, 0x65, 0x6e, 0x73, 0x65, 0x5f,
  0x31, 0x2f, 0x4d, 0x61, 0x74, 0x4d, 0x75, 0x6c, 0x00, 0x00, 0x00, 0x00,
  0x02, 0x00, 0x00, 0x00, 0x40, 0x00, 0x00, 0x00, 0x40, 0x00, 0x00, 0x00,
  0x26, 0xff, 0xff, 0xff, 0x00, 0x00, 0x00, 0x01, 0x14, 0x00, 0x00, 0x00,
  0x30, 0x00, 0x00, 0x00, 0x04, 0x00, 0x00, 0x00, 0x00, 0x00, 0x00, 0x02,
  0x50, 0x00, 0x00, 0x00, 0x74, 0xfe, 0xff, 0xff, 0x08, 0x00, 0x00, 0x00,
  0x10, 0x00, 0x00, 0x00, 0x01, 0x00, 0x00, 0x00, 0x00, 0x00, 0x00, 0x00,
  0x00, 0x00, 0x00, 0x00, 0x01, 0x00, 0x00, 0x00, 0x24, 0x6e, 0x7b, 0x37,
  0x24, 0x00, 0x00, 0x00, 0x6d, 0x6f, 0x64, 0x65, 0x6c, 0x2f, 0x64, 0x65,
  0x6e, 0x73, 0x65, 0x5f, 0x31, 0x2f, 0x42, 0x69, 0x61, 0x73, 0x41, 0x64,
  0x64, 0x2f, 0x52, 0x65, 0x61, 0x64, 0x56, 0x61, 0x72, 0x69, 0x61, 0x62,
  0x6c, 0x65, 0x4f, 0x70, 0x00, 0x00, 0x00, 0x00, 0x01, 0x00, 0x00, 0x00,
  0x40, 0x00, 0x00, 0x00, 0x96, 0xff, 0xff, 0xff, 0x00, 0x00, 0x00, 0x01,
  0x14, 0x00, 0x00, 0x00, 0x34, 0x00, 0x00, 0x00, 0x03, 0x00, 0x00, 0x00,
  0x00, 0x00, 0x00, 0x09, 0x44, 0x00, 0x00, 0x00, 0xe4, 0xfe, 0xff, 0xff,
  0x08, 0x00, 0x00, 0x00, 0x14, 0x00, 0x00, 0x00, 0x01, 0x00, 0x00, 0x00,
  0x00, 0x00, 0x00, 0x00, 0x00, 0x00, 0x00, 0x00, 0x00, 0x00, 0x00, 0x00,
  0x01, 0x00, 0x00, 0x00, 0x13, 0x34, 0x1e, 0x3b, 0x14, 0x00, 0x00, 0x00,
  0x6d, 0x6f, 0x64, 0x65, 0x6c, 0x2f, 0x64, 0x65, 0x6e, 0x73, 0x65, 0x5f,
  0x32, 0x2f, 0x4d, 0x61, 0x74, 0x4d, 0x75, 0x6c, 0x00, 0x00, 0x00, 0x00,
  0x02, 0x00, 0x00, 0x00, 0x02, 0x00, 0x00, 0x00, 0x40, 0x00, 0x00, 0x00,
  0x00, 0x00, 0x16, 0x00, 0x1c, 0x00, 0x18, 0x00, 0x17, 0x00, 0x10, 0x00,
  0x0c, 0x00, 0x08, 0x00, 0x00, 0x00, 0x00, 0x00, 0x00, 0x00, 0x07, 0x00,
  0x16, 0x00, 0x00, 0x00, 0x00, 0x00, 0x00, 0x01, 0x14, 0x00, 0x00, 0x00,
  0x34, 0x00, 0x00, 0x00, 0x02, 0x00, 0x00, 0x00, 0x00, 0x00, 0x00, 0x02,
  0x54, 0x00, 0x00, 0x00, 0x64, 0xff, 0xff, 0xff, 0x08, 0x00, 0x00, 0x00,
  0x14, 0x00, 0x00, 0x00, 0x01, 0x00, 0x00, 0x00, 0x00, 0x00, 0x00, 0x00,
  0x00, 0x00, 0x00, 0x00, 0x00, 0x00, 0x00, 0x00, 0x01, 0x00, 0x00, 0x00,
  0x13, 0x34, 0x9e, 0x37, 0x24, 0x00, 0x00, 0x00, 0x6d, 0x6f, 0x64, 0x65,
  0x6c, 0x2f, 0x64, 0x65, 0x6e, 0x73, 0x65, 0x5f, 0x32, 0x2f, 0x42, 0x69,
  0x61, 0x73, 0x41, 0x64, 0x64, 0x2f, 0x52, 0x65, 0x61, 0x64, 0x56, 0x61,
  0x72, 0x69, 0x61, 0x62, 0x6c, 0x65, 0x4f, 0x70, 0x00, 0x00, 0x00, 0x00,
  0x01, 0x00, 0x00, 0x00, 0x02, 0x00, 0x00, 0x00, 0x00, 0x00, 0x16, 0x00,
  0x20, 0x00, 0x1c, 0x00, 0x1b, 0x00, 0x14, 0x00, 0x10, 0x00, 0x0c, 0x00,
  0x00, 0x00, 0x00, 0x00, 0x08, 0x00, 0x07, 0x00, 0x16, 0x00, 0x00, 0x00,
  0x00, 0x00, 0x00, 0x01, 0x18, 0x00, 0x00, 0x00, 0x2c, 0x00, 0x00, 0x00,
  0x4c, 0x00, 0x00, 0x00, 0x01, 0x00, 0x00, 0x00, 0x00, 0x00, 0x00, 0x09,
  0x60, 0x00, 0x00, 0x00, 0x02, 0x00, 0x00, 0x00, 0xff, 0xff, 0xff, 0xff,
  0x04, 0x00, 0x00, 0x00, 0x0c, 0x00, 0x0c, 0x00, 0x00, 0x00, 0x00, 0x00,
  0x08, 0x00, 0x04, 0x00, 0x0c, 0x00, 0x00, 0x00, 0x08, 0x00, 0x00, 0x00,
  0x14, 0x00, 0x00, 0x00, 0x01, 0x00, 0x00, 0x00, 0x05, 0x00, 0x00, 0x00,
  0x00, 0x00, 0x00, 0x00, 0x00, 0x00, 0x00, 0x00, 0x01, 0x00, 0x00, 0x00,
  0x7e, 0x96, 0x86, 0x3c, 0x19, 0x00, 0x00, 0x00, 0x73, 0x65, 0x72, 0x76,
  0x69, 0x6e, 0x67, 0x5f, 0x64, 0x65, 0x66, 0x61, 0x75, 0x6c, 0x74, 0x5f,
  0x69, 0x6e, 0x70, 0x75, 0x74, 0x5f, 0x31, 0x3a, 0x30, 0x00, 0x00, 0x00,
  0x02, 0x00, 0x00, 0x00, 0x01, 0x00, 0x00, 0x00, 0x04, 0x00, 0x00, 0x00,
  0x02, 0x00, 0x00, 0x00, 0x24, 0x00, 0x00, 0x00, 0x04, 0x00, 0x00, 0x00,
  0xf0, 0xff, 0xff, 0xff, 0x1c, 0x00, 0x00, 0x00, 0x02, 0x00, 0x00, 0x00,
  0x00, 0x00, 0x00, 0x1c, 0x0c, 0x00, 0x10, 0x00, 0x0f, 0x00, 0x00, 0x00,
  0x08, 0x00, 0x04, 0x00, 0x0c, 0x00, 0x00, 0x00, 0x09, 0x00, 0x00, 0x00,
  0x04, 0x00, 0x00, 0x00, 0x00, 0x00, 0x00, 0x09
};
unsigned int actor_quant_tflite_len = 7472;
