/* Copyright 2020 The TensorFlow Authors. All Rights Reserved.

Licensed under the Apache License, Version 2.0 (the "License");
you may not use this file except in compliance with the License.
You may obtain a copy of the License at

    http://www.apache.org/licenses/LICENSE-2.0

Unless required by applicable law or agreed to in writing, software
distributed under the License is distributed on an "AS IS" BASIS,
WITHOUT WARRANTIES OR CONDITIONS OF ANY KIND, either express or implied.
See the License for the specific language governing permissions and
limitations under the License.
==============================================================================*/

// Automatically created from a TensorFlow Lite flatbuffer using the command:
// xxd -i model.tflite > model.cc

// This is a standard TensorFlow Lite model file that has been converted into a
// C data array, so it can be easily compiled into a binary for devices that
// don't have a file system.

// See train/README.md for a full description of the creation process.

#include "model.h"

// Keep model aligned to 8 bytes to guarantee aligned 64-bit accesses.
alignas(8) const unsigned char actor_quant_tflite[] = {

    0x20, 0x00, 0x00, 0x00, 0x54, 0x46, 0x4c, 0x33, 0x00, 0x00, 0x00, 0x00, 
    0x14, 0x00, 0x20, 0x00, 0x1c, 0x00, 0x18, 0x00, 0x14, 0x00, 0x10, 0x00, 
    0x0c, 0x00, 0x00, 0x00, 0x08, 0x00, 0x04, 0x00, 0x14, 0x00, 0x00, 0x00, 
    0x1c, 0x00, 0x00, 0x00, 0x80, 0x00, 0x00, 0x00, 0xd8, 0x00, 0x00, 0x00, 
    0x88, 0x15, 0x00, 0x00, 0x98, 0x15, 0x00, 0x00, 0xc0, 0x1c, 0x00, 0x00, 
    0x03, 0x00, 0x00, 0x00, 0x01, 0x00, 0x00, 0x00, 0x04, 0x00, 0x00, 0x00, 
    0xa6, 0xe9, 0xff, 0xff, 0x0c, 0x00, 0x00, 0x00, 0x1c, 0x00, 0x00, 0x00, 
    0x38, 0x00, 0x00, 0x00, 0x0f, 0x00, 0x00, 0x00, 0x73, 0x65, 0x72, 0x76, 
    0x69, 0x6e, 0x67, 0x5f, 0x64, 0x65, 0x66, 0x61, 0x75, 0x6c, 0x74, 0x00, 
    0x01, 0x00, 0x00, 0x00, 0x04, 0x00, 0x00, 0x00, 0x9c, 0xff, 0xff, 0xff, 
    0x0b, 0x00, 0x00, 0x00, 0x04, 0x00, 0x00, 0x00, 0x07, 0x00, 0x00, 0x00, 
    0x64, 0x65, 0x6e, 0x73, 0x65, 0x5f, 0x32, 0x00, 0x01, 0x00, 0x00, 0x00, 
    0x04, 0x00, 0x00, 0x00, 0xfe, 0xea, 0xff, 0xff, 0x04, 0x00, 0x00, 0x00, 
    0x07, 0x00, 0x00, 0x00, 0x69, 0x6e, 0x70, 0x75, 0x74, 0x5f, 0x31, 0x00, 
    0x02, 0x00, 0x00, 0x00, 0x34, 0x00, 0x00, 0x00, 0x04, 0x00, 0x00, 0x00, 
    0xdc, 0xff, 0xff, 0xff, 0x0e, 0x00, 0x00, 0x00, 0x04, 0x00, 0x00, 0x00, 
    0x13, 0x00, 0x00, 0x00, 0x43, 0x4f, 0x4e, 0x56, 0x45, 0x52, 0x53, 0x49, 
    0x4f, 0x4e, 0x5f, 0x4d, 0x45, 0x54, 0x41, 0x44, 0x41, 0x54, 0x41, 0x00, 
    0x08, 0x00, 0x0c, 0x00, 0x08, 0x00, 0x04, 0x00, 0x08, 0x00, 0x00, 0x00, 
    0x0d, 0x00, 0x00, 0x00, 0x04, 0x00, 0x00, 0x00, 0x13, 0x00, 0x00, 0x00, 
    0x6d, 0x69, 0x6e, 0x5f, 0x72, 0x75, 0x6e, 0x74, 0x69, 0x6d, 0x65, 0x5f, 
    0x76, 0x65, 0x72, 0x73, 0x69, 0x6f, 0x6e, 0x00, 0x0f, 0x00, 0x00, 0x00, 
    0xac, 0x14, 0x00, 0x00, 0xa4, 0x14, 0x00, 0x00, 0x8c, 0x14, 0x00, 0x00, 
    0xf4, 0x13, 0x00, 0x00, 0xe4, 0x12, 0x00, 0x00, 0xd4, 0x02, 0x00, 0x00, 
    0xc4, 0x01, 0x00, 0x00, 0xb4, 0x00, 0x00, 0x00, 0xac, 0x00, 0x00, 0x00, 
    0xa4, 0x00, 0x00, 0x00, 0x9c, 0x00, 0x00, 0x00, 0x94, 0x00, 0x00, 0x00, 
    0x8c, 0x00, 0x00, 0x00, 0x6c, 0x00, 0x00, 0x00, 0x04, 0x00, 0x00, 0x00, 
    0xae, 0xeb, 0xff, 0xff, 0x04, 0x00, 0x00, 0x00, 0x58, 0x00, 0x00, 0x00, 
    0x0c, 0x00, 0x00, 0x00, 0x08, 0x00, 0x0e, 0x00, 0x08, 0x00, 0x04, 0x00, 
    0x08, 0x00, 0x00, 0x00, 0x10, 0x00, 0x00, 0x00, 0x28, 0x00, 0x00, 0x00, 
    0x00, 0x00, 0x06, 0x00, 0x08, 0x00, 0x04, 0x00, 0x06, 0x00, 0x00, 0x00, 
    0x04, 0x00, 0x00, 0x00, 0x01, 0x00, 0x00, 0x00, 0xeb, 0x03, 0x00, 0x00, 
    0x00, 0x00, 0x0a, 0x00, 0x10, 0x00, 0x0c, 0x00, 0x08, 0x00, 0x04, 0x00, 
    0x0a, 0x00, 0x00, 0x00, 0x02, 0x00, 0x00, 0x00, 0x02, 0x00, 0x00, 0x00, 
    0x04, 0x00, 0x00, 0x00, 0x06, 0x00, 0x00, 0x00, 0x32, 0x2e, 0x31, 0x30, 
    0x2e, 0x30, 0x00, 0x00, 0x12, 0xec, 0xff, 0xff, 0x04, 0x00, 0x00, 0x00, 
    0x10, 0x00, 0x00, 0x00, 0x31, 0x2e, 0x31, 0x34, 0x2e, 0x30, 0x00, 0x00, 
    0x00, 0x00, 0x00, 0x00, 0x00, 0x00, 0x00, 0x00, 0xd4, 0xea, 0xff, 0xff, 
    0xd8, 0xea, 0xff, 0xff, 0xdc, 0xea, 0xff, 0xff, 0xe0, 0xea, 0xff, 0xff, 
    0xe4, 0xea, 0xff, 0xff, 0x42, 0xec, 0xff, 0xff, 0x04, 0x00, 0x00, 0x00, 
    0x00, 0x01, 0x00, 0x00, 0xf1, 0xe5, 0x04, 0xee, 0x3b, 0x06, 0x7a, 0x16, 
    0x25, 0x00, 0x62, 0x1d, 0xea, 0x1c, 0xbe, 0xe5, 0xfb, 0x0d, 0x12, 0x17, 
    0x1b, 0xfb, 0x48, 0x4d, 0xf9, 0x1c, 0xc1, 0xea, 0xef, 0x42, 0x65, 0x28, 
    0xde, 0x3c, 0x24, 0xfa, 0x0e, 0x1a, 0x1b, 0x15, 0xe6, 0x03, 0x5f, 0x1c, 
    0xdb, 0x26, 0x32, 0x2f, 0xd7, 0x39, 0x11, 0x43, 0x35, 0x08, 0x4a, 0xef, 
    0xf3, 0xf7, 0xc5, 0xbf, 0xf1, 0xe4, 0x62, 0x12, 0x21, 0xec, 0x8a, 0xde, 
    0xf3, 0x10, 0xaa, 0xc8, 0xd1, 0x07, 0x26, 0x00, 0x2b, 0x07, 0x89, 0xb2, 
    0xee, 0x03, 0xcc, 0x15, 0x47, 0x41, 0x03, 0x34, 0xd4, 0xe3, 0x26, 0x2d, 
    0xee, 0xd9, 0x33, 0x51, 0x1e, 0xec, 0xa2, 0xb4, 0x07, 0x2a, 0x78, 0x12, 
    0x1f, 0x01, 0x54, 0x1e, 0x39, 0xdc, 0x6a, 0x3e, 0x2a, 0xfc, 0x6c, 0x45, 
    0xef, 0x37, 0x58, 0x31, 0xde, 0x3d, 0x63, 0xe2, 0xcc, 0xf1, 0xb3, 0xfe, 
    0xbe, 0xe1, 0xb2, 0xd2, 0x37, 0xce, 0xb4, 0xca, 0x09, 0x4b, 0x0f, 0x31, 
    0xf9, 0x1a, 0x6c, 0x0e, 0x0a, 0x0b, 0x16, 0x24, 0xd4, 0xbe, 0xaf, 0xc7, 
    0xd1, 0x0e, 0xb8, 0xc6, 0xd7, 0xc0, 0xae, 0x04, 0x24, 0x06, 0xcf, 0xdd, 
    0xfd, 0x15, 0x92, 0x12, 0xda, 0xc9, 0xe6, 0x15, 0xfb, 0xea, 0x1c, 0x3c, 
    0x2a, 0xe8, 0xc3, 0x15, 0xd5, 0x09, 0x76, 0x3a, 0x25, 0x1e, 0x4e, 0x04, 
    0xff, 0x46, 0x24, 0x05, 0xd2, 0xbb, 0xca, 0xd5, 0x00, 0x06, 0x0f, 0xd1, 
    0xfa, 0xf7, 0xad, 0x16, 0x04, 0xf2, 0xcc, 0xcd, 0xf6, 0xb7, 0x9a, 0xdf, 
    0xde, 0xe4, 0xa7, 0xf4, 0x22, 0x2c, 0x7f, 0x08, 0xc6, 0xc7, 0xa6, 0xf3, 
    0xdb, 0xe7, 0x6b, 0x48, 0xd9, 0x0c, 0xb6, 0xc5, 0xf5, 0xd4, 0xa6, 0xb1, 
    0x07, 0x20, 0x1b, 0xd7, 0xd6, 0xfe, 0xa3, 0x0a, 0x23, 0x2d, 0x2c, 0x38, 
    0xf7, 0xf7, 0xf3, 0xc5, 0x43, 0x2e, 0x78, 0x14, 0x4e, 0xed, 0xff, 0xff, 
    0x04, 0x00, 0x00, 0x00, 0x00, 0x01, 0x00, 0x00, 0x26, 0x01, 0x00, 0x00, 
    0x76, 0xfe, 0xff, 0xff, 0x83, 0xfe, 0xff, 0xff, 0x6f, 0x01, 0x00, 0x00, 
    0x98, 0xfe, 0xff, 0xff, 0xa7, 0xfd, 0xff, 0xff, 0x6a, 0x01, 0x00, 0x00, 
    0xcc, 0xfe, 0xff, 0xff, 0x52, 0xff, 0xff, 0xff, 0x76, 0xfe, 0xff, 0xff, 
    0x61, 0xfb, 0xff, 0xff, 0xba, 0xff, 0xff, 0xff, 0x41, 0xff, 0xff, 0xff, 
    0xbf, 0xfe, 0xff, 0xff, 0x24, 0x01, 0x00, 0x00, 0x0e, 0xfc, 0xff, 0xff, 
    0x73, 0x01, 0x00, 0x00, 0xe6, 0x01, 0x00, 0x00, 0x17, 0x00, 0x00, 0x00, 
    0x1c, 0x03, 0x00, 0x00, 0x74, 0x00, 0x00, 0x00, 0xcb, 0xf9, 0xff, 0xff, 
    0xd4, 0xfd, 0xff, 0xff, 0x79, 0xfe, 0xff, 0xff, 0x85, 0x00, 0x00, 0x00, 
    0xf1, 0xfe, 0xff, 0xff, 0xe2, 0xfc, 0xff, 0xff, 0x60, 0xfe, 0xff, 0xff, 
    0x3a, 0xfd, 0xff, 0xff, 0xf4, 0xfe, 0xff, 0xff, 0x2b, 0x00, 0x00, 0x00, 
    0xda, 0x00, 0x00, 0x00, 0xb1, 0x00, 0x00, 0x00, 0x65, 0x00, 0x00, 0x00, 
    0x63, 0xfe, 0xff, 0xff, 0x69, 0xff, 0xff, 0xff, 0xdd, 0xfd, 0xff, 0xff, 
    0x58, 0x03, 0x00, 0x00, 0x29, 0x02, 0x00, 0x00, 0x6c, 0x00, 0x00, 0x00, 
    0x41, 0x01, 0x00, 0x00, 0x40, 0x00, 0x00, 0x00, 0x81, 0x00, 0x00, 0x00, 
    0x3f, 0xfe, 0xff, 0xff, 0xfe, 0xfe, 0xff, 0xff, 0xe5, 0xfc, 0xff, 0xff, 
    0x76, 0xff, 0xff, 0xff, 0x2f, 0xff, 0xff, 0xff, 0xff, 0x02, 0x00, 0x00, 
    0xbf, 0x03, 0x00, 0x00, 0x80, 0xfe, 0xff, 0xff, 0x69, 0x01, 0x00, 0x00, 
    0x18, 0x01, 0x00, 0x00, 0x80, 0x01, 0x00, 0x00, 0x37, 0x01, 0x00, 0x00, 
    0x33, 0x01, 0x00, 0x00, 0x26, 0xfd, 0xff, 0xff, 0x60, 0x04, 0x00, 0x00, 
    0x93, 0x03, 0x00, 0x00, 0xb8, 0xff, 0xff, 0xff, 0x89, 0x01, 0x00, 0x00, 
    0xa2, 0xfc, 0xff, 0xff, 0xe2, 0x01, 0x00, 0x00, 0x09, 0xfe, 0xff, 0xff, 
    0x5a, 0xee, 0xff, 0xff, 0x04, 0x00, 0x00, 0x00, 0x00, 0x10, 0x00, 0x00, 
    0x0c, 0xef, 0xd0, 0xe4, 0xd1, 0xc1, 0x23, 0xb1, 0x11, 0x1b, 0xff, 0xce, 
    0xd3, 0xf4, 0x29, 0xdb, 0x43, 0xf8, 0x10, 0x2e, 0xe5, 0x15, 0xe4, 0x24, 
    0x11, 0xc4, 0x07, 0xfb, 0xe1, 0xf0, 0x12, 0xea, 0xfe, 0xf9, 0xec, 0xb8, 
    0x0a, 0xf1, 0x1f, 0x1f, 0x15, 0x07, 0xf7, 0x2a, 0x05, 0x03, 0x16, 0xf2, 
    0xef, 0xd9, 0xd4, 0x0b, 0xf3, 0x3d, 0x16, 0x21, 0xe4, 0x31, 0x48, 0xfa, 
    0x01, 0x14, 0x16, 0xcb, 0x15, 0x12, 0x32, 0x0c, 0x01, 0x27, 0x04, 0x2a, 
    0x16, 0x33, 0x1d, 0xfd, 0xef, 0xe0, 0x03, 0x1b, 0x1b, 0x11, 0xf4, 0x06, 
    0x01, 0x30, 0x10, 0x0a, 0xf2, 0x40, 0x06, 0x1c, 0xe9, 0x39, 0x2d, 0xe1, 
    0xf0, 0x0d, 0x26, 0x50, 0x08, 0x05, 0xe6, 0xfa, 0xd4, 0xf7, 0x01, 0x19, 
    0xfa, 0x05, 0x3a, 0xf7, 0xd7, 0x23, 0xe9, 0xf2, 0xfe, 0x18, 0x40, 0xf3, 
    0x20, 0xfc, 0xb3, 0x18, 0x20, 0x04, 0x0f, 0xfe, 0x32, 0x04, 0xdf, 0x20, 
    0xd7, 0x27, 0xd9, 0x0d, 0x2c, 0xc8, 0x0c, 0xdf, 0x01, 0x08, 0x2b, 0xed, 
    0xf6, 0x0a, 0x03, 0xe5, 0x28, 0x15, 0x19, 0xec, 0x09, 0xfe, 0xc5, 0xf7, 
    0x04, 0xd6, 0x01, 0xf3, 0x09, 0xec, 0xe2, 0xe8, 0xd2, 0x13, 0xed, 0xf7, 
    0x0d, 0x3b, 0xe9, 0xee, 0xe0, 0xeb, 0xf5, 0xde, 0x18, 0xe5, 0x1f, 0x38, 
    0x13, 0xe0, 0x22, 0x02, 0x06, 0xda, 0x0d, 0x1e, 0x31, 0x0c, 0xf0, 0x08, 
    0xde, 0xcf, 0xde, 0x24, 0xe1, 0x03, 0x07, 0xcd, 0xfd, 0xf2, 0x00, 0xf9, 
    0xdc, 0xf0, 0x2c, 0xff, 0x21, 0x32, 0x2d, 0x0b, 0x31, 0xef, 0xe2, 0x04, 
    0x06, 0xd0, 0xe8, 0x09, 0x0c, 0xed, 0xfb, 0xec, 0x10, 0x05, 0xed, 0xac, 
    0x19, 0x42, 0x2e, 0xda, 0x15, 0x1f, 0xf4, 0xe7, 0x16, 0x23, 0xce, 0xe3, 
    0x20, 0xfb, 0x0e, 0xf2, 0x32, 0xf6, 0xfd, 0x2c, 0x04, 0xde, 0x40, 0x25, 
    0x25, 0x1a, 0xe8, 0x11, 0xe4, 0x41, 0x3e, 0xdc, 0x33, 0x2e, 0xd8, 0x49, 
    0x07, 0x40, 0xe8, 0xf7, 0x21, 0xfe, 0x05, 0x18, 0xc9, 0x12, 0x14, 0xdf, 
    0xe9, 0xdf, 0x0b, 0xf1, 0xf3, 0x21, 0x13, 0x37, 0x01, 0x09, 0x29, 0xeb, 
    0xe5, 0xfb, 0x41, 0x10, 0x3d, 0xd1, 0xd9, 0x09, 0x27, 0x16, 0xf3, 0xff, 
    0xe2, 0x36, 0x2d, 0xfb, 0xcb, 0x0b, 0xfd, 0x0c, 0xe8, 0x06, 0xee, 0xd8, 
    0x31, 0x08, 0xc1, 0xe3, 0xce, 0x17, 0x27, 0x31, 0xcd, 0xfb, 0xec, 0x15, 
    0xda, 0xf2, 0xcf, 0x18, 0xf0, 0x0a, 0xf1, 0xdc, 0x2a, 0x13, 0xfa, 0x28, 
    0xe7, 0xcb, 0xf3, 0x17, 0x21, 0xf4, 0x1f, 0xfb, 0xf7, 0x17, 0xfb, 0xfd, 
    0x18, 0x1a, 0xd9, 0xf7, 0xda, 0xf3, 0xec, 0x4f, 0x24, 0xd7, 0x26, 0x01, 
    0x26, 0xca, 0xe4, 0x1a, 0x0f, 0xdc, 0x1f, 0xdb, 0xf6, 0xf8, 0x26, 0xed, 
    0xf2, 0xca, 0x33, 0xfa, 0x19, 0xe8, 0x1a, 0x2b, 0xca, 0x0a, 0xe5, 0x24, 
    0x1a, 0xc5, 0xc7, 0x20, 0x05, 0xdb, 0x18, 0xfa, 0xe4, 0xcc, 0x0b, 0x15, 
    0x1b, 0xea, 0x2e, 0x0d, 0x28, 0x07, 0x2e, 0x12, 0x01, 0xee, 0xe5, 0xfd, 
    0x13, 0xa4, 0xc2, 0xeb, 0xd4, 0xd3, 0xf3, 0x27, 0x20, 0xdf, 0xc6, 0xd8, 
    0xed, 0x44, 0x0f, 0x34, 0x12, 0x0b, 0x0d, 0xdf, 0x27, 0xe9, 0x08, 0xce, 
    0x1e, 0x26, 0xec, 0x32, 0x2d, 0x08, 0x12, 0x17, 0xf3, 0xf9, 0x4d, 0xd4, 
    0x2b, 0x0e, 0xdf, 0xd1, 0x20, 0xdb, 0xc5, 0x35, 0xcf, 0xd5, 0x0e, 0xce, 
    0x0c, 0xf2, 0x20, 0x0d, 0xd3, 0xc9, 0x2b, 0xf3, 0x19, 0x18, 0x17, 0xe7, 
    0xfb, 0xd2, 0xe6, 0x03, 0x22, 0xe1, 0xf0, 0xf7, 0xc9, 0x04, 0x01, 0xe7, 
    0x3c, 0x02, 0xe4, 0xf7, 0x1a, 0xfb, 0x1c, 0x14, 0x15, 0xfc, 0xe9, 0x13, 
    0x21, 0x26, 0xe3, 0xc4, 0x3f, 0x0c, 0x23, 0xe2, 0x03, 0x1c, 0xc5, 0xe8, 
    0xd2, 0xfd, 0x47, 0x11, 0x1a, 0xf8, 0x0f, 0x09, 0xf1, 0x16, 0xcb, 0x19, 
    0x14, 0xe1, 0x09, 0xd7, 0x24, 0xc9, 0xc6, 0x22, 0x26, 0xca, 0x0f, 0xd5, 
    0x34, 0xfe, 0xee, 0xe6, 0xd3, 0xd3, 0x1b, 0x2a, 0xe7, 0xaf, 0xc0, 0xce, 
    0xd0, 0xe9, 0xe7, 0x21, 0xf1, 0xe7, 0x13, 0xc7, 0x0d, 0x30, 0x3b, 0xef, 
    0xe8, 0xf7, 0xfa, 0xe1, 0x1f, 0xe2, 0x19, 0x0c, 0x0e, 0xe4, 0x14, 0x2c, 
    0x05, 0x3b, 0xed, 0x28, 0xd0, 0xe9, 0x2c, 0xde, 0xdf, 0xd3, 0xfa, 0xf2, 
    0xcd, 0x2c, 0x16, 0xd5, 0xf2, 0x37, 0xd9, 0x23, 0x1c, 0x38, 0x17, 0x18, 
    0x14, 0x2e, 0xd4, 0xf3, 0xfa, 0xe1, 0x26, 0xe7, 0x17, 0x15, 0x02, 0x00, 
    0xf5, 0x4b, 0x38, 0x2c, 0x34, 0x37, 0x13, 0xe0, 0x00, 0x01, 0x1d, 0x5f, 
    0x03, 0xb1, 0xff, 0x20, 0xe9, 0xe4, 0xff, 0x0c, 0x03, 0xf6, 0x26, 0x3e, 
    0xbe, 0xf8, 0x05, 0xc3, 0xb2, 0xca, 0x00, 0xe6, 0x28, 0xff, 0x9d, 0x2c, 
    0xde, 0x23, 0x10, 0xee, 0xdd, 0x25, 0x0a, 0xec, 0xdc, 0xe8, 0xe8, 0x21, 
    0x13, 0x19, 0x07, 0x0a, 0xe9, 0x11, 0xcd, 0xd9, 0xfb, 0x07, 0xef, 0x1d, 
    0x21, 0x03, 0x12, 0xf8, 0x11, 0x1d, 0x02, 0x2c, 0xeb, 0x49, 0x24, 0xe0, 
    0x16, 0xfc, 0x24, 0x48, 0x24, 0x0d, 0xe6, 0xdc, 0x09, 0xd5, 0xed, 0x11, 
    0xd3, 0x0f, 0x0c, 0x08, 0xf9, 0xd7, 0xdd, 0x0c, 0xf7, 0xff, 0x1f, 0xce, 
    0xf2, 0xff, 0xf5, 0xe7, 0x1b, 0x1f, 0xd8, 0x28, 0xcc, 0x3b, 0x08, 0xea, 
    0xfa, 0xe4, 0xe1, 0x10, 0x1b, 0xf1, 0xe0, 0x2e, 0xe9, 0xdb, 0x05, 0x18, 
    0x13, 0xfb, 0xdc, 0x28, 0xf8, 0x00, 0x01, 0xfa, 0x24, 0x2a, 0x20, 0x09, 
    0xdd, 0xfb, 0xdd, 0x1b, 0xe9, 0x0d, 0xe3, 0xf6, 0xe1, 0xd4, 0x1c, 0xd2, 
    0xd0, 0x1c, 0x2a, 0x1f, 0xe1, 0x1d, 0xec, 0xeb, 0xca, 0xf0, 0x19, 0xcf, 
    0xf5, 0xc2, 0xf0, 0xe3, 0x24, 0xed, 0xe8, 0x09, 0x20, 0x16, 0x16, 0x36, 
    0x16, 0x0f, 0x17, 0xdf, 0x18, 0xfd, 0x36, 0xba, 0xdd, 0x0d, 0xcc, 0xdb, 
    0xe1, 0x02, 0xe3, 0x03, 0x20, 0x1b, 0x17, 0xf0, 0xfc, 0xf4, 0x0f, 0xe4, 
    0x24, 0x0c, 0xfb, 0xe0, 0xee, 0x0e, 0xdb, 0x3c, 0x0d, 0x07, 0xce, 0xb3, 
    0xc5, 0x17, 0xe3, 0x30, 0x30, 0x38, 0x2a, 0x08, 0xf5, 0xff, 0x11, 0x24, 
    0x06, 0x2e, 0x01, 0x3c, 0x12, 0x12, 0xcf, 0x1f, 0x1b, 0xfe, 0x0b, 0xe5, 
    0xde, 0xc1, 0x01, 0x0d, 0xe2, 0xfa, 0x0b, 0x06, 0x09, 0x07, 0xdd, 0x62, 
    0x08, 0x32, 0x08, 0x28, 0x24, 0x2a, 0xf5, 0xf3, 0x08, 0xfc, 0xe8, 0xd1, 
    0xd4, 0xe9, 0x18, 0x2b, 0xce, 0x3a, 0x28, 0x14, 0x0c, 0x14, 0x0d, 0xdf, 
    0xd4, 0x08, 0x45, 0x5e, 0x23, 0xb4, 0xd5, 0x1e, 0xfa, 0xfd, 0xca, 0xed, 
    0xdc, 0x23, 0x30, 0x44, 0xd6, 0xe3, 0xf7, 0xd0, 0xbe, 0xbd, 0xf1, 0x07, 
    0x03, 0xe0, 0xc8, 0xd8, 0xe2, 0x35, 0xf1, 0x50, 0x0f, 0x36, 0x37, 0xe7, 
    0x32, 0x51, 0xc7, 0x0f, 0xe2, 0x10, 0x20, 0x26, 0x1b, 0xe9, 0xde, 0x22, 
    0xff, 0xef, 0x07, 0xdf, 0xf4, 0x0d, 0xfb, 0x1d, 0xda, 0x5e, 0x49, 0x36, 
    0x2f, 0x1e, 0xec, 0xde, 0x04, 0xd2, 0x25, 0x24, 0xfa, 0xe3, 0xeb, 0xd6, 
    0xe4, 0x1b, 0xe6, 0x30, 0xe4, 0x01, 0x09, 0x0c, 0x0f, 0x15, 0xdf, 0xc8, 
    0xd4, 0x0a, 0x09, 0x1a, 0xe4, 0xe2, 0x9c, 0xe1, 0x1f, 0x07, 0xcb, 0x18, 
    0x12, 0xf8, 0x23, 0xe3, 0x09, 0x32, 0x13, 0x29, 0x21, 0x3d, 0xef, 0x07, 
    0x2f, 0x1a, 0xbb, 0xda, 0xf8, 0xe7, 0x11, 0xd6, 0xf6, 0x2f, 0xde, 0x0d, 
    0xd5, 0x1a, 0x19, 0x27, 0x0b, 0x51, 0xef, 0x13, 0xbb, 0x02, 0x38, 0x28, 
    0xe4, 0xbe, 0xf4, 0xc8, 0x1f, 0xcc, 0xf0, 0x24, 0xff, 0x22, 0xe0, 0xdc, 
    0x04, 0xdf, 0x24, 0xe1, 0xc4, 0xc7, 0xfc, 0xd3, 0x35, 0xd8, 0xf1, 0xd7, 
    0xf2, 0x0e, 0xeb, 0xfe, 0x06, 0x03, 0x2b, 0xe7, 0x27, 0x35, 0x0d, 0x54, 
    0x09, 0x1a, 0x36, 0x2a, 0x0d, 0xdf, 0xfc, 0x28, 0x16, 0x1c, 0x1b, 0xcb, 
    0x28, 0x34, 0xee, 0x31, 0xf2, 0x4d, 0xfd, 0xfe, 0x01, 0x2d, 0x32, 0x19, 
    0xf8, 0xf4, 0x3d, 0x54, 0xf8, 0xf9, 0xcc, 0xe5, 0xfb, 0xf8, 0x2a, 0x1b, 
    0xff, 0x07, 0xfc, 0xd9, 0xfe, 0x19, 0xed, 0x04, 0xfe, 0xbd, 0x35, 0xf8, 
    0xe5, 0x0b, 0xc6, 0x18, 0xc8, 0x23, 0x0e, 0x08, 0x22, 0x02, 0xf9, 0xe8, 
    0xdf, 0xdd, 0x06, 0x4e, 0xd0, 0xe6, 0x14, 0x2a, 0xea, 0x2f, 0xca, 0xfc, 
    0x0a, 0xd7, 0xe4, 0x18, 0x18, 0x2b, 0xf7, 0x02, 0xed, 0xf3, 0x1a, 0xdf, 
    0xe0, 0x12, 0xd6, 0xec, 0x1a, 0x13, 0x2f, 0x3d, 0x02, 0x1b, 0x0f, 0x1f, 
    0xda, 0xc8, 0xed, 0x16, 0xe9, 0x04, 0xee, 0xf7, 0x00, 0x13, 0xfd, 0x20, 
    0xf2, 0xef, 0x2e, 0x25, 0x17, 0xfb, 0xc6, 0x23, 0xeb, 0x09, 0x17, 0x36, 
    0x0e, 0x4d, 0x35, 0x03, 0x09, 0x2c, 0x1f, 0x54, 0x0a, 0x2f, 0x05, 0x19, 
    0xe0, 0x04, 0xdc, 0xf0, 0xec, 0xf9, 0x14, 0x19, 0xe7, 0x03, 0x25, 0x0e, 
    0xe5, 0x3c, 0x0e, 0x2c, 0x27, 0x17, 0xe0, 0xe5, 0xdf, 0x04, 0x05, 0x4d, 
    0x0c, 0x0a, 0xe1, 0x1a, 0x10, 0x16, 0xf9, 0x24, 0xe3, 0x2d, 0x3d, 0x3b, 
    0x19, 0xfe, 0xf1, 0xc5, 0x0d, 0xe7, 0x3b, 0xf5, 0x15, 0xd3, 0xa5, 0x13, 
    0xc0, 0x0e, 0xf9, 0x42, 0xf9, 0xcb, 0xe2, 0x26, 0xce, 0xc2, 0x0e, 0xcd, 
    0x23, 0xf5, 0xe0, 0xe8, 0x0e, 0x23, 0x3e, 0xc9, 0x2b, 0xfa, 0xed, 0x2e, 
    0x28, 0x08, 0xda, 0x0c, 0x13, 0xda, 0x1a, 0xcc, 0xe8, 0xe6, 0xf6, 0x0b, 
    0xf6, 0x2f, 0xe0, 0xd6, 0xca, 0x2e, 0x0c, 0x14, 0x35, 0xe7, 0x2b, 0xd3, 
    0xde, 0xfa, 0x21, 0xcd, 0x05, 0xfd, 0xf8, 0xed, 0x39, 0x31, 0xe7, 0x16, 
    0x12, 0x2f, 0xf7, 0xde, 0x3b, 0x1b, 0x1d, 0xde, 0xff, 0x09, 0x37, 0x0e, 
    0x1d, 0x22, 0xf9, 0x3a, 0x18, 0x00, 0xf9, 0x13, 0xe2, 0x12, 0xfb, 0xfe, 
    0xff, 0x08, 0xdd, 0xdf, 0xd4, 0x23, 0x13, 0x29, 0xfe, 0x41, 0x04, 0xe0, 
    0xea, 0x46, 0xf3, 0x15, 0xfd, 0x07, 0x33, 0x20, 0x05, 0x04, 0xe2, 0x05, 
    0x0c, 0xd6, 0x00, 0xe0, 0x0e, 0x28, 0x3c, 0xfd, 0xc9, 0x20, 0xf6, 0x13, 
    0xc8, 0xd8, 0xf4, 0x13, 0x28, 0xd4, 0x0c, 0xfd, 0xc6, 0x26, 0xf1, 0x20, 
    0xe4, 0x22, 0x37, 0x10, 0x2c, 0xfe, 0x06, 0x2a, 0x07, 0x35, 0x2c, 0x00, 
    0x1a, 0xfe, 0xd3, 0x28, 0xc3, 0xcb, 0x14, 0xc8, 0x14, 0x3c, 0x14, 0xfb, 
    0xec, 0x26, 0x3d, 0x22, 0x43, 0x1b, 0x11, 0xcf, 0xf8, 0xc8, 0x4b, 0x3a, 
    0xf5, 0xf3, 0xe0, 0xce, 0x1b, 0xbf, 0xe3, 0x27, 0x13, 0x19, 0xff, 0xf5, 
    0xf7, 0xcd, 0xe7, 0xce, 0xe7, 0x03, 0x0c, 0xd5, 0x38, 0xcc, 0xa6, 0x18, 
    0xd3, 0xf7, 0x09, 0x3e, 0xff, 0x2c, 0xe9, 0x03, 0xd7, 0x1e, 0xe7, 0x39, 
    0xee, 0x21, 0xe5, 0xe4, 0x02, 0x0e, 0xcb, 0xec, 0xfa, 0xe3, 0x1d, 0xfa, 
    0xe5, 0xf0, 0xd9, 0xea, 0xda, 0xf6, 0x05, 0x0c, 0xf3, 0xef, 0xe8, 0xfa, 
    0xed, 0xd2, 0x02, 0x48, 0xeb, 0xe5, 0xfc, 0x16, 0x1c, 0x23, 0x22, 0xf9, 
    0x24, 0xfa, 0xde, 0xf6, 0xe2, 0xce, 0x11, 0xea, 0xbf, 0x0b, 0xeb, 0x0d, 
    0xec, 0xff, 0x16, 0x1d, 0xfa, 0xf9, 0x1a, 0x3a, 0xd0, 0x34, 0x29, 0xdb, 
    0x0f, 0x1d, 0x1e, 0x53, 0x07, 0xf4, 0x0e, 0x3c, 0xe6, 0x00, 0x1b, 0xed, 
    0xe1, 0xcd, 0x12, 0x00, 0xfb, 0x3a, 0x12, 0x30, 0x1f, 0x36, 0xe9, 0x25, 
    0xfe, 0x3c, 0x14, 0xe8, 0x1c, 0xd8, 0xfc, 0x58, 0xf4, 0xe9, 0xfd, 0xf0, 
    0x1a, 0xfd, 0x13, 0x0b, 0xdf, 0x36, 0x28, 0xe4, 0xf6, 0xe8, 0xff, 0xf1, 
    0xe8, 0xd2, 0x3c, 0xc6, 0xe8, 0xfb, 0x15, 0x18, 0xf6, 0xf1, 0xd2, 0xeb, 
    0x1f, 0x40, 0xed, 0xd7, 0x33, 0x0d, 0xc9, 0x42, 0xfa, 0x26, 0x2e, 0xe7, 
    0xee, 0xf6, 0xbf, 0xed, 0xe9, 0xe6, 0xea, 0x0b, 0x22, 0x0b, 0x0f, 0x1e, 
    0x08, 0x32, 0x1a, 0x23, 0x2a, 0x52, 0x15, 0x1b, 0x01, 0xd7, 0x0c, 0x0c, 
    0x3b, 0xef, 0xc9, 0x11, 0x24, 0xf3, 0xeb, 0x2c, 0xe0, 0x23, 0x32, 0xd9, 
    0x1a, 0xce, 0x11, 0x14, 0x0c, 0xd7, 0x1b, 0x0f, 0x0d, 0xf9, 0xdd, 0x20, 
    0xe2, 0x0d, 0x14, 0x16, 0x25, 0xcb, 0xe2, 0x37, 0x16, 0x1f, 0x24, 0xb2, 
    0xeb, 0xf2, 0xed, 0xdb, 0xe5, 0x1c, 0xeb, 0x06, 0x44, 0x21, 0x0f, 0xf8, 
    0x0a, 0xc6, 0xf3, 0x1e, 0xf1, 0xaf, 0x0d, 0xc9, 0xdd, 0xd6, 0x1d, 0xee, 
    0x3b, 0xe2, 0x0e, 0xca, 0xed, 0xec, 0xef, 0xf6, 0x18, 0x3d, 0x19, 0xe0, 
    0xe7, 0xe1, 0xe7, 0xf6, 0x3a, 0x09, 0xe1, 0x04, 0x34, 0xee, 0xd7, 0xf8, 
    0x21, 0xe5, 0x17, 0x20, 0x20, 0xe0, 0x1a, 0xd8, 0xf6, 0xf7, 0x3d, 0xd4, 
    0x27, 0xf8, 0x12, 0x59, 0xde, 0x20, 0x05, 0x42, 0x29, 0x12, 0xbb, 0x35, 
    0xec, 0xb1, 0xfb, 0xe2, 0xe8, 0xfd, 0xf8, 0xdc, 0xbb, 0x3c, 0x04, 0xfd, 
    0x33, 0x2e, 0x35, 0xf1, 0x16, 0xf8, 0x29, 0x7f, 0xed, 0xff, 0x07, 0xcf, 
    0xe1, 0xcb, 0xde, 0x30, 0xe7, 0x2a, 0xf3, 0x36, 0xcc, 0x1c, 0x16, 0xea, 
    0xfc, 0x0f, 0x43, 0x17, 0xe1, 0xc8, 0xe2, 0x2b, 0x1b, 0x49, 0xca, 0x36, 
    0x39, 0xa3, 0xe4, 0x2b, 0x0c, 0xc5, 0x36, 0x9f, 0x02, 0xb2, 0xd0, 0xf9, 
    0xf3, 0x0c, 0x38, 0x14, 0xf9, 0x4b, 0x2a, 0xf0, 0x2b, 0xfc, 0xe8, 0xcf, 
    0x37, 0xaf, 0xb9, 0xf6, 0xe1, 0xcd, 0xc6, 0x13, 0x4b, 0x24, 0xb9, 0x9b, 
    0xdd, 0x51, 0x47, 0x22, 0x0c, 0xed, 0x25, 0x29, 0xe5, 0xff, 0xe2, 0xf6, 
    0x48, 0x13, 0x05, 0x43, 0x38, 0x33, 0xea, 0x22, 0xf2, 0x4d, 0x46, 0xfb, 
    0x07, 0xd8, 0xf3, 0xbe, 0x29, 0xfc, 0x16, 0xe3, 0xf7, 0x02, 0xf0, 0xfc, 
    0xda, 0xf6, 0x03, 0xfe, 0xdb, 0x15, 0x27, 0xf1, 0x29, 0xe5, 0x1b, 0x09, 
    0x06, 0x09, 0x0f, 0x00, 0x26, 0xda, 0x00, 0x11, 0xe0, 0xdc, 0xe4, 0x1b, 
    0x1f, 0xf7, 0x18, 0xce, 0x24, 0xfa, 0xff, 0xed, 0xeb, 0x02, 0xd3, 0x28, 
    0xe5, 0x16, 0xf4, 0xf6, 0xfd, 0xed, 0xf6, 0xe9, 0x2b, 0x2c, 0x15, 0xef, 
    0xfe, 0xdc, 0x20, 0x12, 0x28, 0xce, 0xdf, 0xf9, 0xcf, 0x3b, 0x0d, 0xd1, 
    0xe0, 0x34, 0x12, 0x53, 0x2c, 0x1f, 0x2a, 0x0a, 0x07, 0x17, 0xdd, 0xf5, 
    0xd5, 0xc4, 0xdf, 0xf0, 0xd0, 0xde, 0x1a, 0xdc, 0xd0, 0x26, 0x29, 0x41, 
    0x43, 0x14, 0x2c, 0xf1, 0xf5, 0xc5, 0xf3, 0x5c, 0x30, 0xd1, 0xdb, 0x1d, 
    0xf0, 0x22, 0xfa, 0x10, 0x1f, 0x2e, 0x24, 0xff, 0xc1, 0xfa, 0x29, 0xf4, 
    0xd8, 0xd0, 0x2d, 0xce, 0x1d, 0x16, 0x0b, 0xe1, 0xcb, 0xe9, 0x1c, 0xf0, 
    0x32, 0xf0, 0xcf, 0xeb, 0x11, 0x08, 0x0e, 0xe7, 0xe0, 0x01, 0x06, 0xc5, 
    0xe8, 0xe1, 0xfa, 0xd0, 0x40, 0x3e, 0xe4, 0x06, 0xe2, 0x0f, 0x04, 0xcf, 
    0xfb, 0xe3, 0xde, 0xdd, 0xe9, 0xe5, 0xfd, 0xff, 0x07, 0x03, 0x0a, 0xa5, 
    0x16, 0xfd, 0x03, 0xec, 0x19, 0xf3, 0x07, 0xd2, 0x07, 0xe3, 0xcd, 0xd0, 
    0x2a, 0x05, 0x0a, 0x2d, 0x15, 0x39, 0xc1, 0x04, 0xed, 0xfa, 0x42, 0x15, 
    0xfd, 0xe8, 0x37, 0xfc, 0xf9, 0xe7, 0xeb, 0x37, 0xdf, 0xdf, 0x0e, 0xee, 
    0x22, 0x06, 0xef, 0x04, 0xcf, 0x12, 0x2c, 0xd3, 0x14, 0x2f, 0x18, 0xe3, 
    0xd3, 0x07, 0xd6, 0xe6, 0x36, 0xb6, 0xee, 0xe6, 0xcf, 0xc0, 0x20, 0xef, 
    0x3f, 0xf0, 0xd1, 0xc3, 0xbe, 0x1f, 0x3e, 0xdf, 0xe1, 0x0c, 0x04, 0xd6, 
    0x02, 0x1d, 0x01, 0x04, 0x2c, 0xd9, 0x08, 0xf4, 0x02, 0xef, 0xd4, 0xdc, 
    0x20, 0xff, 0x43, 0xf6, 0xda, 0xc9, 0xf6, 0xfe, 0x06, 0xef, 0x39, 0xed, 
    0xfe, 0x00, 0xcb, 0x26, 0x26, 0xfd, 0x0c, 0x35, 0x01, 0x08, 0xc9, 0xe4, 
    0x18, 0xe8, 0x0c, 0xd5, 0xd5, 0xff, 0x02, 0x02, 0xf7, 0x2e, 0x17, 0x26, 
    0x23, 0x16, 0xed, 0x21, 0x12, 0xc8, 0xfb, 0x4c, 0x2f, 0x1c, 0x0f, 0xe8, 
    0xd3, 0xe9, 0xe4, 0xe4, 0xde, 0xe5, 0x30, 0xea, 0xcf, 0xfc, 0x03, 0xe2, 
    0xc1, 0x15, 0xfb, 0xd8, 0x10, 0x07, 0xd5, 0xdf, 0xd1, 0xea, 0x00, 0x20, 
    0x0b, 0xfe, 0x35, 0xea, 0x10, 0x01, 0x0d, 0x31, 0xea, 0xfa, 0xea, 0xf1, 
    0xe8, 0xdf, 0xce, 0xf3, 0xc3, 0xd5, 0x16, 0x17, 0xde, 0x0d, 0x00, 0xe8, 
    0xc3, 0x52, 0x4a, 0x2b, 0x13, 0x53, 0x13, 0xfe, 0xc1, 0xcf, 0x31, 0x6c, 
    0x33, 0xf7, 0x10, 0xee, 0xfb, 0x06, 0x25, 0x0d, 0x2f, 0xea, 0xfa, 0x3b, 
    0xd2, 0x0f, 0xca, 0xcc, 0xb8, 0xe4, 0x12, 0xdb, 0x2f, 0xd2, 0xc1, 0xda, 
    0xbe, 0x49, 0xdc, 0x44, 0x10, 0xc4, 0xff, 0x1c, 0x1a, 0xc9, 0xf0, 0x07, 
    0xeb, 0xd4, 0x17, 0x20, 0xfe, 0xe0, 0xf7, 0x1e, 0x06, 0xf9, 0xf0, 0xdc, 
    0x23, 0x22, 0x06, 0xf4, 0x08, 0xbb, 0x10, 0x1b, 0xc4, 0xd0, 0x19, 0xe7, 
    0xfc, 0x30, 0x0b, 0xe8, 0x09, 0xef, 0x1f, 0x0d, 0x1f, 0x34, 0xde, 0xd0, 
    0x2b, 0x15, 0xe0, 0x00, 0x1f, 0xfe, 0x06, 0xe5, 0x01, 0x03, 0x1a, 0x33, 
    0x02, 0x30, 0xec, 0xe0, 0xed, 0xce, 0xe4, 0xe8, 0xf9, 0xf1, 0xd5, 0x14, 
    0x12, 0x14, 0x14, 0x01, 0x21, 0xf8, 0x10, 0xcc, 0x1d, 0xed, 0x1f, 0x25, 
    0x0b, 0xea, 0xe6, 0x00, 0x1e, 0xea, 0xd4, 0x0a, 0xda, 0xef, 0xfd, 0xd1, 
    0xc5, 0xc1, 0x26, 0x0f, 0xdc, 0x2a, 0xdd, 0xc7, 0xfe, 0x25, 0x21, 0xdc, 
    0xee, 0xef, 0xed, 0x13, 0x2a, 0x28, 0x21, 0x0d, 0x0b, 0xea, 0x0d, 0xdd, 
    0xf9, 0xfc, 0x03, 0xea, 0x17, 0x06, 0x01, 0x1a, 0x05, 0x24, 0xff, 0xf7, 
    0x09, 0xd7, 0xfc, 0x2c, 0xf6, 0x20, 0x2a, 0xff, 0xcf, 0xd8, 0x0e, 0xfa, 
    0xdd, 0xd8, 0x29, 0xcc, 0x16, 0x35, 0xd3, 0xf7, 0x29, 0x11, 0xd5, 0x22, 
    0x10, 0xd1, 0x17, 0xe1, 0xdd, 0xd3, 0x0f, 0xdf, 0xfd, 0x20, 0xf0, 0xba, 
    0xc7, 0xfc, 0x24, 0x02, 0xd9, 0x15, 0x2d, 0x0e, 0x16, 0x11, 0xfe, 0xe3, 
    0x13, 0x12, 0x24, 0x2f, 0x1c, 0x27, 0x03, 0x06, 0xdc, 0xf4, 0xfe, 0xed, 
    0x29, 0x00, 0x0b, 0xe0, 0x1b, 0x32, 0x3c, 0xd2, 0x23, 0x22, 0xfc, 0x4d, 
    0x19, 0x3a, 0x35, 0xe0, 0xe7, 0xea, 0x17, 0x03, 0xc5, 0xc1, 0x0a, 0xcd, 
    0xe7, 0xe9, 0x0c, 0x18, 0xdd, 0x4e, 0x1c, 0xfc, 0x28, 0x2c, 0xe8, 0xe4, 
    0x1a, 0xc1, 0x28, 0x1e, 0x34, 0xc7, 0xc9, 0xf4, 0xfa, 0x0a, 0x23, 0x11, 
    0x2f, 0xea, 0xed, 0xf9, 0x0d, 0xce, 0xd6, 0x02, 0xfc, 0xbd, 0x09, 0xff, 
    0x37, 0xe6, 0xf6, 0x16, 0xe4, 0x27, 0xdb, 0x19, 0x23, 0xfc, 0x10, 0x22, 
    0x0b, 0x03, 0x25, 0xff, 0x06, 0xcd, 0xd7, 0xed, 0xc6, 0xcd, 0x00, 0xe4, 
    0x1e, 0x36, 0x03, 0x2d, 0xdd, 0x13, 0xd1, 0xe0, 0xe6, 0xd5, 0xd4, 0xe7, 
    0xe9, 0xd2, 0x0a, 0x01, 0xf0, 0xf2, 0xcf, 0xda, 0xc3, 0x2b, 0x47, 0x03, 
    0xf8, 0x0f, 0xfc, 0xfd, 0xdb, 0xc5, 0xc6, 0x15, 0xf3, 0x17, 0xd4, 0x2a, 
    0xf9, 0xf7, 0x03, 0xe4, 0xd1, 0xf0, 0x32, 0x2b, 0x27, 0xcb, 0x17, 0xce, 
    0xf3, 0xbe, 0xe0, 0x23, 0x21, 0xd2, 0x0b, 0x0b, 0xd1, 0xc7, 0xe2, 0xcf, 
    0xd6, 0xdc, 0x37, 0x07, 0x05, 0x33, 0x00, 0x04, 0x20, 0x1f, 0x05, 0x19, 
    0x0a, 0xf4, 0x08, 0x0a, 0xdd, 0xe9, 0xfe, 0xf5, 0xff, 0xe4, 0xea, 0x01, 
    0xd6, 0xeb, 0x12, 0x37, 0xe1, 0xfa, 0x0e, 0xf1, 0x17, 0x04, 0x0f, 0xdf, 
    0xe4, 0x29, 0x1c, 0xe4, 0xf5, 0x1d, 0xe9, 0xe6, 0xf6, 0xe1, 0x20, 0x19, 
    0xe2, 0xd5, 0xea, 0xbe, 0xeb, 0x1e, 0x49, 0xda, 0x00, 0x16, 0x01, 0x14, 
    0x28, 0x1d, 0x09, 0x0e, 0x04, 0x28, 0xe5, 0xf5, 0xbe, 0xce, 0x0e, 0xea, 
    0xe0, 0xe6, 0x0b, 0xd7, 0xf1, 0x40, 0x20, 0x24, 0x4a, 0x3c, 0xf1, 0x12, 
    0xca, 0x00, 0xf5, 0x6b, 0x03, 0xb2, 0xbe, 0xec, 0x10, 0x0f, 0x10, 0xfa, 
    0xfc, 0x2f, 0xfd, 0x31, 0xdc, 0xd4, 0xd1, 0xe9, 0xbc, 0xf3, 0x0a, 0x03, 
    0xe9, 0xc8, 0xd4, 0xf0, 0xda, 0x42, 0x0b, 0x30, 0x25, 0x44, 0xf0, 0xd5, 
    0x19, 0x2f, 0xd8, 0x41, 0x1d, 0x37, 0xf1, 0x2e, 0x0f, 0xe9, 0x1c, 0xf7, 
    0xef, 0xc7, 0xe6, 0xcd, 0x00, 0xde, 0x1c, 0xd5, 0xd7, 0x51, 0x0b, 0x17, 
    0xfb, 0x50, 0x1d, 0xfe, 0xc2, 0xf2, 0x01, 0x02, 0xdd, 0x19, 0xfb, 0xe5, 
    0x10, 0xe0, 0xe7, 0xd8, 0xed, 0xf8, 0xdc, 0xf9, 0xf6, 0x1c, 0x0c, 0xd7, 
    0xdd, 0xbe, 0xf3, 0xfd, 0xff, 0x14, 0xf0, 0xd1, 0x19, 0xf2, 0xea, 0x2c, 
    0xce, 0x29, 0x08, 0xc9, 0xf7, 0x17, 0xed, 0x51, 0x2a, 0x02, 0xdf, 0x18, 
    0x25, 0xe9, 0xda, 0x09, 0xdf, 0xfe, 0x02, 0xf9, 0xe2, 0x30, 0x2f, 0x10, 
    0x16, 0xf7, 0x19, 0x15, 0x1b, 0x31, 0x22, 0xbf, 0xc2, 0x17, 0x35, 0x36, 
    0x2d, 0xff, 0x1d, 0xeb, 0x1c, 0xf3, 0x18, 0x0a, 0xfe, 0x15, 0x23, 0x2f, 
    0x09, 0xf7, 0x29, 0xf5, 0x11, 0xc2, 0x23, 0xd9, 0x28, 0xef, 0x03, 0x2f, 
    0xc6, 0x18, 0xe0, 0x49, 0x08, 0xba, 0xcf, 0x0a, 0xef, 0xf4, 0xf8, 0xe2, 
    0xff, 0xd7, 0xee, 0x1d, 0xc4, 0xcf, 0x3a, 0xfc, 0x35, 0xe4, 0x36, 0x1d, 
    0xdd, 0xd1, 0x2d, 0x18, 0x04, 0x9e, 0xd9, 0xe5, 0xda, 0xad, 0xd6, 0x41, 
    0x17, 0xed, 0xb4, 0xa4, 0x1b, 0x08, 0x30, 0x27, 0xef, 0x31, 0xf0, 0x22, 
    0xd1, 0xf2, 0x17, 0xec, 0x03, 0x17, 0x12, 0xf8, 0x3e, 0xfc, 0x06, 0x26, 
    0x11, 0x10, 0x1c, 0xee, 0x1d, 0xb7, 0x19, 0xae, 0xe0, 0xb5, 0xef, 0x00, 
    0xf7, 0xdd, 0x35, 0xbb, 0xf7, 0xc7, 0xcd, 0x0c, 0xd4, 0x10, 0x05, 0x19, 
    0x43, 0xe6, 0xf0, 0x1d, 0x1a, 0xc5, 0xd7, 0xd7, 0x32, 0xfd, 0xd4, 0xe3, 
    0x07, 0xf4, 0xef, 0xed, 0x28, 0xed, 0xe2, 0xe9, 0xf6, 0x2e, 0x34, 0x38, 
    0xe0, 0x0b, 0x21, 0x20, 0x02, 0xed, 0xe0, 0xeb, 0xf8, 0x25, 0xf6, 0x2e, 
    0x1f, 0xf6, 0xe6, 0x31, 0x04, 0x0f, 0x1f, 0x1d, 0x0d, 0xeb, 0x05, 0x05, 
    0xcf, 0x16, 0xff, 0xf8, 0xf6, 0x43, 0xed, 0x23, 0x29, 0x3c, 0xe5, 0x22, 
    0xfa, 0x00, 0xef, 0x24, 0xf4, 0xd8, 0xe7, 0xf4, 0xda, 0x13, 0x28, 0x31, 
    0xc4, 0x74, 0x21, 0x21, 0x3c, 0x2d, 0x38, 0xe8, 0xcb, 0x1b, 0xf6, 0x67, 
    0x0f, 0xe0, 0xdc, 0xf8, 0xf4, 0xd7, 0x12, 0x2d, 0x14, 0x0e, 0x1e, 0x25, 
    0xe7, 0xeb, 0xbf, 0xf9, 0xee, 0xc8, 0x3f, 0xe7, 0x03, 0xcc, 0x98, 0xe5, 
    0xeb, 0xfe, 0x13, 0x4d, 0x07, 0x27, 0xe2, 0xe9, 0x33, 0x36, 0xdc, 0xfe, 
    0x17, 0x1a, 0x2b, 0x0f, 0x2b, 0xee, 0x17, 0xf5, 0xfe, 0x0e, 0x13, 0xc5, 
    0x21, 0x36, 0x2d, 0x2d, 0x1e, 0xf4, 0x1e, 0xfe, 0x19, 0x13, 0x02, 0xd8, 
    0x08, 0x14, 0x18, 0x14, 0xee, 0xed, 0xd2, 0xdd, 0xf5, 0xc8, 0xe6, 0x24, 
    0xff, 0xef, 0x15, 0xea, 0x07, 0xe9, 0xdb, 0x12, 0x11, 0xc5, 0x1c, 0xd1, 
    0x0e, 0xd2, 0xd7, 0x28, 0x02, 0x20, 0xcd, 0xf8, 0xe9, 0xe7, 0xf7, 0xe3, 
    0x0f, 0x13, 0x09, 0x16, 0xfd, 0xf3, 0xe2, 0xf4, 0x37, 0xe4, 0xca, 0x33, 
    0x0a, 0xf7, 0x28, 0x00, 0x2a, 0x2c, 0x2a, 0xf3, 0xca, 0xf8, 0x19, 0x2e, 
    0x11, 0x12, 0x1a, 0xc8, 0xf8, 0xe1, 0x2b, 0xfb, 0x31, 0x16, 0xee, 0xe7, 
    0xe0, 0xdc, 0xe4, 0xef, 0xd5, 0x32, 0x2a, 0xf4, 0xc3, 0x2a, 0xcf, 0xfe, 
    0xff, 0xdb, 0x1c, 0xda, 0x0c, 0xe0, 0xff, 0x0c, 0x19, 0x0f, 0xe0, 0x09, 
    0x24, 0xef, 0xde, 0x29, 0xe1, 0x19, 0xd8, 0xf0, 0xda, 0xc9, 0x23, 0xd9, 
    0xfe, 0xcf, 0x0e, 0x19, 0x21, 0x1a, 0xf8, 0x26, 0x21, 0x0a, 0x15, 0x15, 
    0x18, 0xda, 0x17, 0xc0, 0xe8, 0xef, 0x07, 0xe3, 0x14, 0x31, 0xfc, 0xb3, 
    0xe8, 0x45, 0x31, 0x2b, 0x07, 0xfc, 0x02, 0xd7, 0xe8, 0xe9, 0xce, 0x08, 
    0x22, 0x07, 0xf2, 0x0f, 0x4a, 0x46, 0xfa, 0xe3, 0xd2, 0x26, 0x1c, 0xd8, 
    0x35, 0xe5, 0x25, 0xc0, 0x4f, 0xdb, 0xa1, 0x0f, 0xd7, 0xc9, 0x1a, 0xb5, 
    0xc4, 0xa9, 0x19, 0xb7, 0xc8, 0xe4, 0x46, 0xfc, 0x1e, 0xf3, 0xf0, 0x1a, 
    0x34, 0xde, 0xd6, 0x18, 0x25, 0x9c, 0xf8, 0xc3, 0xfe, 0xdb, 0x08, 0x5d, 
    0x5d, 0x3a, 0xb5, 0xc7, 0xb4, 0x31, 0x28, 0x1a, 0x10, 0xef, 0x3a, 0xff, 
    0xe4, 0xcd, 0xca, 0xd9, 0x54, 0x20, 0x1e, 0x45, 0x7a, 0x25, 0xbe, 0x22, 
    0x12, 0x16, 0x4d, 0xf0, 0x57, 0xd0, 0x12, 0xa0, 0xce, 0x3d, 0x2c, 0xfa, 
    0x10, 0x22, 0x09, 0x67, 0x1f, 0x21, 0x15, 0x2c, 0xf4, 0x00, 0xe3, 0xfc, 
    0xca, 0x0e, 0x03, 0x11, 0x00, 0xef, 0x1e, 0x20, 0xf8, 0x50, 0xf3, 0x0e, 
    0x4f, 0x4b, 0x2f, 0xc3, 0xf7, 0xc4, 0x4b, 0x20, 0x3a, 0xd1, 0xc8, 0xd4, 
    0xf7, 0x1c, 0xe9, 0x1f, 0xf1, 0x1f, 0xe7, 0x25, 0xc2, 0xd1, 0xd3, 0x0b, 
    0xb2, 0x01, 0x1e, 0xd2, 0xf9, 0x0c, 0xc6, 0x2d, 0xf4, 0x03, 0xc3, 0x3b, 
    0xce, 0xf8, 0xeb, 0xf9, 0x10, 0xe8, 0xec, 0x3a, 0x1f, 0xe3, 0x04, 0x40, 
    0x30, 0x17, 0x11, 0xe3, 0xeb, 0x1e, 0x20, 0x0d, 0x1d, 0xe8, 0x1a, 0xd9, 
    0xef, 0x23, 0xf8, 0xf9, 0x15, 0x4b, 0x26, 0xe5, 0xd6, 0xd0, 0x29, 0x54, 
    0x14, 0xd8, 0x0d, 0xfa, 0xe2, 0xef, 0xf8, 0xd8, 0xfa, 0x16, 0x38, 0x35, 
    0x05, 0xf6, 0xfe, 0xd0, 0xe6, 0xd0, 0x19, 0x0b, 0xfd, 0xec, 0xd2, 0x22, 
    0x0c, 0x06, 0xd8, 0xe5, 0x28, 0x13, 0x40, 0xce, 0xed, 0x1f, 0x18, 0x32, 
    0xe5, 0xde, 0x28, 0x0d, 0x2b, 0x0f, 0xcc, 0xd9, 0xbe, 0x19, 0xfa, 0x18, 
    0xd9, 0x08, 0xfa, 0x35, 0xf5, 0x40, 0x0d, 0x1f, 0xe3, 0x3a, 0xe9, 0x08, 
    0x13, 0x12, 0x1f, 0x40, 0xf2, 0x06, 0xe8, 0xee, 0xed, 0xd7, 0xd9, 0x23, 
    0x2b, 0xea, 0x0f, 0x0c, 0x08, 0x25, 0x13, 0x12, 0xbd, 0xe9, 0xf7, 0xf3, 
    0x16, 0xd8, 0xe6, 0x00, 0x1e, 0xf6, 0xdc, 0x0e, 0x10, 0xf1, 0x25, 0x0d, 
    0x28, 0x0d, 0x12, 0x47, 0xd3, 0x2f, 0xf8, 0x39, 0x2e, 0x16, 0xc1, 0x1b, 
    0xc3, 0xdb, 0x1b, 0x09, 0x04, 0x0d, 0xf5, 0xdd, 0xc6, 0x3d, 0x04, 0x10, 
    0xe3, 0x33, 0x24, 0xf4, 0xfe, 0xf2, 0xf7, 0x3f, 0xd9, 0x16, 0xe2, 0xf3, 
    0xf0, 0xd0, 0x22, 0x34, 0x2b, 0x04, 0x37, 0x05, 0xe1, 0x29, 0xf4, 0xe0, 
    0xbc, 0x07, 0x1f, 0x1d, 0xf7, 0xe4, 0xea, 0xdf, 0x19, 0x00, 0x27, 0x3e, 
    0xf9, 0xda, 0xba, 0x3c, 0xd3, 0xcd, 0xea, 0xf1, 0xf9, 0xfd, 0xd6, 0xf2, 
    0xfe, 0xfb, 0x1f, 0x0e, 0x2a, 0x28, 0x02, 0x27, 0xdd, 0xe0, 0xea, 0xd7, 
    0x2d, 0xef, 0x19, 0xcd, 0xca, 0xb7, 0xef, 0xfd, 0x1d, 0x16, 0x10, 0xbe, 
    0xe0, 0x1b, 0x0e, 0xff, 0xfc, 0x2e, 0xf2, 0x09, 0xec, 0x07, 0x0f, 0xef, 
    0x03, 0xf4, 0xfb, 0x26, 0x21, 0xea, 0xfe, 0x02, 0xdd, 0x03, 0x16, 0x11, 
    0x38, 0xfb, 0xdd, 0xeb, 0x22, 0xe8, 0xf8, 0xf0, 0x0a, 0x06, 0xdd, 0xdd, 
    0xd7, 0x17, 0xee, 0x06, 0xe6, 0xe9, 0x2b, 0xf7, 0x09, 0x3d, 0xd8, 0xda, 
    0xfe, 0xea, 0xe0, 0xca, 0xe2, 0xcf, 0x05, 0xcd, 0xff, 0xcb, 0xe2, 0xe1, 
    0x2d, 0x32, 0xdc, 0xa5, 0xd2, 0x41, 0x13, 0xec, 0xe3, 0xe7, 0x2b, 0xe7, 
    0xef, 0xc8, 0xea, 0x13, 0x36, 0x08, 0x29, 0x1a, 0x3d, 0xf3, 0x1a, 0x08, 
    0xfb, 0x1f, 0x26, 0xec, 0x0c, 0xf4, 0xdc, 0xbc, 0x1b, 0xf1, 0x32, 0x07, 
    0x10, 0x3e, 0xf7, 0x4e, 0x34, 0x2f, 0x30, 0x39, 0x26, 0xdc, 0xf3, 0x33, 
    0xf6, 0xe9, 0x0f, 0xf0, 0xec, 0xdd, 0x1d, 0x1b, 0x04, 0x38, 0xf4, 0x02, 
    0x22, 0x2a, 0x37, 0xe2, 0xee, 0xca, 0x43, 0x4e, 0x27, 0xfe, 0x14, 0xdb, 
    0x09, 0x05, 0xf7, 0x07, 0xec, 0x1a, 0x15, 0x02, 0xd7, 0xfd, 0xd7, 0xd9, 
    0xf9, 0x0c, 0x1a, 0xd7, 0x15, 0x1c, 0xc7, 0x08, 0xf6, 0x21, 0xd6, 0x42, 
    0x21, 0xed, 0xbe, 0xed, 0xe4, 0xcd, 0x32, 0xac, 0x14, 0xcd, 0x05, 0xe0, 
    0xda, 0x0a, 0x23, 0x29, 0x04, 0xf8, 0x01, 0x2e, 0x10, 0xec, 0x23, 0x06, 
    0x07, 0x9a, 0xf1, 0xc8, 0xee, 0xa6, 0xeb, 0x32, 0x13, 0x28, 0xe7, 0xd0, 
    0xeb, 0xf1, 0x40, 0xeb, 0xf7, 0x31, 0x1b, 0xd3, 0xf1, 0xea, 0xe6, 0xea, 
    0x35, 0xf0, 0x08, 0x23, 0x24, 0x09, 0xd2, 0xfc, 0xee, 0xe9, 0x25, 0xfa, 
    0x07, 0x0c, 0xfb, 0xce, 0x07, 0x2b, 0x16, 0xcb, 0x36, 0x0e, 0x08, 0x1d, 
    0xda, 0x22, 0x1c, 0x32, 0xe7, 0x11, 0xe4, 0xe8, 0xc8, 0xfe, 0xd9, 0xff, 
    0xcf, 0x2b, 0x0c, 0x22, 0xca, 0x09, 0x2b, 0xf8, 0x0a, 0x0d, 0x13, 0xf7, 
    0xd6, 0xda, 0xec, 0x17, 0xfc, 0xf0, 0xf7, 0xea, 0xdd, 0xcf, 0x27, 0xeb, 
    0xef, 0x0e, 0x08, 0xfa, 0xcc, 0x13, 0xd1, 0xe6, 0x0a, 0xbd, 0xfc, 0xcc, 
    0x0d, 0xe4, 0xe2, 0x07, 0xe7, 0x14, 0xcf, 0x22, 0x31, 0xd5, 0xd2, 0xea, 
    0xd8, 0xea, 0xef, 0xcb, 0x07, 0x00, 0x11, 0xc9, 0xe5, 0xee, 0x2b, 0xfc, 
    0xfc, 0x09, 0xed, 0x35, 0x2e, 0x25, 0xfd, 0xcd, 0x25, 0xba, 0xd8, 0x0f, 
    0xf4, 0x0a, 0xcf, 0x1d, 0x2e, 0x1d, 0x07, 0xbf, 0x17, 0x38, 0x24, 0xed, 
    0xea, 0x28, 0xe8, 0x2a, 0x2f, 0x07, 0xc5, 0xd7, 0x26, 0xea, 0x2b, 0x29, 
    0xfa, 0x2e, 0xc7, 0xf7, 0xeb, 0xe5, 0xef, 0xf5, 0x26, 0xff, 0x07, 0xff, 
    0x2e, 0xc8, 0xd2, 0x37, 0xcf, 0xfb, 0x2d, 0xe9, 0x26, 0x09, 0x14, 0xf8, 
    0x0d, 0x24, 0xfd, 0xed, 0x27, 0x1d, 0x2b, 0x0f, 0x1d, 0xf5, 0x01, 0xef, 
    0x3b, 0xb7, 0x09, 0x14, 0x1a, 0xc2, 0xe0, 0x31, 0x11, 0x00, 0xc1, 0xd6, 
    0xf4, 0xec, 0x01, 0x09, 0x11, 0xf4, 0x31, 0x1d, 0x20, 0xce, 0x15, 0xcb, 
    0x36, 0xf5, 0xe8, 0x23, 0x23, 0x2b, 0xdf, 0x32, 0x09, 0xf4, 0xf0, 0x1e, 
    0x36, 0xf6, 0x2b, 0xda, 0xff, 0x32, 0x2c, 0xff, 0xe0, 0xf0, 0xd8, 0x02, 
    0xdb, 0x33, 0xe2, 0xf1, 0x2c, 0x0a, 0xc6, 0x2b, 0x1a, 0xe8, 0xf1, 0xeb, 
    0x00, 0xe8, 0xfb, 0x20, 0xe2, 0x54, 0x09, 0x10, 0x24, 0x4a, 0x35, 0xc9, 
    0xe9, 0xef, 0x1f, 0x4b, 0x2c, 0x00, 0xff, 0x1f, 0xdd, 0xcc, 0xf5, 0x0a, 
    0xf7, 0x22, 0xeb, 0x36, 0xde, 0x21, 0xfc, 0xd5, 0xb9, 0x16, 0xec, 0xc9, 
    0xe4, 0xc2, 0xda, 0x0a, 0xfd, 0x19, 0xd0, 0x08, 0x02, 0xf3, 0xbd, 0x35, 
    0xe8, 0xf4, 0x2d, 0xa9, 0xf1, 0x13, 0xce, 0xdb, 0xd5, 0xea, 0x1b, 0xe3, 
    0x36, 0x2b, 0x00, 0xdc, 0x24, 0xde, 0xf7, 0xfb, 0x02, 0xb7, 0x1c, 0xd4, 
    0xd1, 0x01, 0xeb, 0x09, 0xe4, 0x24, 0xd4, 0xcb, 0x01, 0x0e, 0x00, 0x00, 
    0xe6, 0x34, 0x04, 0xf4, 0xe9, 0xd6, 0xe6, 0xf8, 0xfc, 0xe5, 0xeb, 0xe9, 
    0xf0, 0x39, 0x19, 0xf4, 0xfb, 0x13, 0x13, 0x03, 0x16, 0x02, 0xec, 0xf4, 
    0x00, 0x0f, 0x13, 0x27, 0xd6, 0xfe, 0xd8, 0x04, 0x23, 0x1a, 0x23, 0xf5, 
    0x25, 0x16, 0xf8, 0xd9, 0xcf, 0xef, 0x16, 0xd3, 0xe8, 0xe9, 0x17, 0xec, 
    0xf5, 0x27, 0xe1, 0x3d, 0x19, 0x43, 0x1b, 0xf3, 0xe8, 0xf1, 0x1b, 0x0f, 
    0xf7, 0x03, 0x0f, 0x25, 0xe6, 0x09, 0xed, 0xef, 0xe3, 0x16, 0x22, 0x22, 
    0xe4, 0xd9, 0x15, 0x23, 0xb6, 0xdc, 0x09, 0x14, 0x1d, 0xf7, 0xdb, 0x29, 
    0xfc, 0xff, 0x19, 0xf7, 0x66, 0xfe, 0xff, 0xff, 0x04, 0x00, 0x00, 0x00, 
    0x00, 0x01, 0x00, 0x00, 0x14, 0x01, 0x00, 0x00, 0xa3, 0xff, 0xff, 0xff, 
    0x44, 0x00, 0x00, 0x00, 0x7c, 0x00, 0x00, 0x00, 0x88, 0xff, 0xff, 0xff, 
    0x89, 0xff, 0xff, 0xff, 0xa4, 0x00, 0x00, 0x00, 0xdd, 0x00, 0x00, 0x00, 
    0x68, 0x00, 0x00, 0x00, 0x7a, 0xff, 0xff, 0xff, 0xcd, 0xff, 0xff, 0xff, 
    0x9f, 0xff, 0xff, 0xff, 0x33, 0x00, 0x00, 0x00, 0x72, 0xff, 0xff, 0xff, 
    0xc1, 0xfd, 0xff, 0xff, 0xd1, 0xfe, 0xff, 0xff, 0xe7, 0xff, 0xff, 0xff, 
    0xc3, 0xff, 0xff, 0xff, 0x10, 0xff, 0xff, 0xff, 0xda, 0x00, 0x00, 0x00, 
    0x97, 0xff, 0xff, 0xff, 0xd9, 0xfe, 0xff, 0xff, 0x82, 0xff, 0xff, 0xff, 
    0xc7, 0xff, 0xff, 0xff, 0xff, 0xfe, 0xff, 0xff, 0xb4, 0x00, 0x00, 0x00, 
    0xdf, 0x00, 0x00, 0x00, 0x98, 0x01, 0x00, 0x00, 0xf6, 0xff, 0xff, 0xff, 
    0x38, 0xff, 0xff, 0xff, 0xe1, 0x00, 0x00, 0x00, 0x6e, 0x01, 0x00, 0x00, 
    0xd5, 0xff, 0xff, 0xff, 0x12, 0xff, 0xff, 0xff, 0x20, 0x00, 0x00, 0x00, 
    0x46, 0x00, 0x00, 0x00, 0x2d, 0x00, 0x00, 0x00, 0x32, 0xfe, 0xff, 0xff, 
    0x60, 0x02, 0x00, 0x00, 0x60, 0x00, 0x00, 0x00, 0x3f, 0xff, 0xff, 0xff, 
    0xd2, 0xff, 0xff, 0xff, 0x78, 0xff, 0xff, 0xff, 0x35, 0x01, 0x00, 0x00, 
    0xb3, 0x00, 0x00, 0x00, 0xd1, 0xfe, 0xff, 0xff, 0x55, 0xff, 0xff, 0xff, 
    0xb3, 0xff, 0xff, 0xff, 0xa9, 0x00, 0x00, 0x00, 0xbb, 0x02, 0x00, 0x00, 
    0xbe, 0xff, 0xff, 0xff, 0x11, 0x00, 0x00, 0x00, 0x7c, 0xff, 0xff, 0xff, 
    0xed, 0xff, 0xff, 0xff, 0xa6, 0x01, 0x00, 0x00, 0x68, 0x00, 0x00, 0x00, 
    0x85, 0x00, 0x00, 0x00, 0xc6, 0x00, 0x00, 0x00, 0x6e, 0xff, 0xff, 0xff, 
    0x37, 0x00, 0x00, 0x00, 0x73, 0x00, 0x00, 0x00, 0x81, 0xff, 0xff, 0xff, 
    0x67, 0x00, 0x00, 0x00, 0xef, 0xff, 0xff, 0xff, 0x72, 0xff, 0xff, 0xff, 
    0x04, 0x00, 0x00, 0x00, 0x80, 0x00, 0x00, 0x00, 0x4f, 0xcb, 0x38, 0x68, 
    0xe4, 0xcc, 0x39, 0x3c, 0x45, 0xd0, 0xc3, 0xe6, 0x11, 0xe7, 0x2a, 0xbb, 
    0x9a, 0xca, 0xb8, 0x5e, 0xa8, 0xd1, 0x0d, 0xc5, 0xa5, 0x09, 0x0c, 0xee, 
    0xe7, 0xc3, 0x28, 0x1a, 0x96, 0x08, 0x1f, 0x1a, 0x3e, 0xd7, 0xe3, 0x44, 
    0xf1, 0xce, 0x9b, 0x1f, 0x12, 0xfc, 0xb2, 0xa7, 0x6b, 0x7f, 0xe3, 0xf7, 
    0x9e, 0x96, 0x21, 0x51, 0xff, 0x68, 0x93, 0x3c, 0x37, 0x94, 0x43, 0x18, 
    0x12, 0x08, 0xe2, 0xd6, 0x70, 0x13, 0xce, 0xf7, 0xbe, 0x3f, 0x18, 0x1b, 
    0xab, 0x60, 0x4d, 0x47, 0x49, 0x09, 0x0d, 0xd2, 0xea, 0x1b, 0x32, 0x62, 
    0x27, 0xb0, 0x4b, 0xaf, 0xc5, 0x42, 0xd7, 0xe7, 0x59, 0x67, 0xed, 0xcf, 
    0x9c, 0x5a, 0xbb, 0xa5, 0x4d, 0x3a, 0x69, 0xdd, 0x9c, 0x5a, 0x59, 0x38, 
    0xef, 0x07, 0x42, 0x4a, 0x18, 0x6e, 0xd5, 0xb9, 0x51, 0xec, 0x0f, 0xa6, 
    0xd0, 0x2a, 0xdc, 0x48, 0x00, 0x00, 0x06, 0x00, 0x08, 0x00, 0x04, 0x00, 
    0x06, 0x00, 0x00, 0x00, 0x04, 0x00, 0x00, 0x00, 0x08, 0x00, 0x00, 0x00, 
    0x36, 0x00, 0x00, 0x00, 0xca, 0xff, 0xff, 0xff, 0xc0, 0xfe, 0xff, 0xff, 
    0xc4, 0xfe, 0xff, 0xff, 0x0f, 0x00, 0x00, 0x00, 0x4d, 0x4c, 0x49, 0x52, 
    0x20, 0x43, 0x6f, 0x6e, 0x76, 0x65, 0x72, 0x74, 0x65, 0x64, 0x2e, 0x00, 
    0x01, 0x00, 0x00, 0x00, 0x14, 0x00, 0x00, 0x00, 0x00, 0x00, 0x0e, 0x00, 
    0x18, 0x00, 0x14, 0x00, 0x10, 0x00, 0x0c, 0x00, 0x08, 0x00, 0x04, 0x00, 
    0x0e, 0x00, 0x00, 0x00, 0x14, 0x00, 0x00, 0x00, 0x1c, 0x00, 0x00, 0x00, 
    0x20, 0x01, 0x00, 0x00, 0x24, 0x01, 0x00, 0x00, 0x28, 0x01, 0x00, 0x00, 
    0x04, 0x00, 0x00, 0x00, 0x6d, 0x61, 0x69, 0x6e, 0x00, 0x00, 0x00, 0x00, 
    0x05, 0x00, 0x00, 0x00, 0xd0, 0x00, 0x00, 0x00, 0x9c, 0x00, 0x00, 0x00, 
    0x5c, 0x00, 0x00, 0x00, 0x38, 0x00, 0x00, 0x00, 0x04, 0x00, 0x00, 0x00, 
    0x52, 0xff, 0xff, 0xff, 0x10, 0x00, 0x00, 0x00, 0x00, 0x00, 0x00, 0x08, 
    0x0c, 0x00, 0x00, 0x00, 0x10, 0x00, 0x00, 0x00, 0x44, 0xff, 0xff, 0xff, 
    0x01, 0x00, 0x00, 0x00, 0x0b, 0x00, 0x00, 0x00, 0x03, 0x00, 0x00, 0x00, 
    0x0a, 0x00, 0x00, 0x00, 0x02, 0x00, 0x00, 0x00, 0x01, 0x00, 0x00, 0x00, 
    0xae, 0xff, 0xff, 0xff, 0x0c, 0x00, 0x00, 0x00, 0x10, 0x00, 0x00, 0x00, 
    0x01, 0x00, 0x00, 0x00, 0x01, 0x00, 0x00, 0x00, 0x0a, 0x00, 0x00, 0x00, 
    0x01, 0x00, 0x00, 0x00, 0x09, 0x00, 0x00, 0x00, 0xa2, 0xff, 0xff, 0xff, 
    0x10, 0x00, 0x00, 0x00, 0x00, 0x00, 0x00, 0x08, 0x0c, 0x00, 0x00, 0x00, 
    0x10, 0x00, 0x00, 0x00, 0x94, 0xff, 0xff, 0xff, 0x01, 0x00, 0x00, 0x00, 
    0x09, 0x00, 0x00, 0x00, 0x03, 0x00, 0x00, 0x00, 0x08, 0x00, 0x00, 0x00, 
    0x04, 0x00, 0x00, 0x00, 0x03, 0x00, 0x00, 0x00, 0x00, 0x00, 0x0a, 0x00, 
    0x10, 0x00, 0x0c, 0x00, 0x08, 0x00, 0x04, 0x00, 0x0a, 0x00, 0x00, 0x00, 
    0x0c, 0x00, 0x00, 0x00, 0x10, 0x00, 0x00, 0x00, 0x01, 0x00, 0x00, 0x00, 
    0x01, 0x00, 0x00, 0x00, 0x08, 0x00, 0x00, 0x00, 0x01, 0x00, 0x00, 0x00, 
    0x07, 0x00, 0x00, 0x00, 0x00, 0x00, 0x0e, 0x00, 0x14, 0x00, 0x00, 0x00, 
    0x10, 0x00, 0x0c, 0x00, 0x0b, 0x00, 0x04, 0x00, 0x0e, 0x00, 0x00, 0x00, 
    0x14, 0x00, 0x00, 0x00, 0x00, 0x00, 0x00, 0x08, 0x10, 0x00, 0x00, 0x00, 
    0x14, 0x00, 0x00, 0x00, 0x04, 0x00, 0x04, 0x00, 0x04, 0x00, 0x00, 0x00, 
    0x01, 0x00, 0x00, 0x00, 0x07, 0x00, 0x00, 0x00, 0x03, 0x00, 0x00, 0x00, 
    0x00, 0x00, 0x00, 0x00, 0x06, 0x00, 0x00, 0x00, 0x05, 0x00, 0x00, 0x00, 
    0x01, 0x00, 0x00, 0x00, 0x0b, 0x00, 0x00, 0x00, 0x01, 0x00, 0x00, 0x00, 
    0x00, 0x00, 0x00, 0x00, 0x0c, 0x00, 0x00, 0x00, 0x4c, 0x05, 0x00, 0x00, 
    0xbc, 0x04, 0x00, 0x00, 0x38, 0x04, 0x00, 0x00, 0xc4, 0x03, 0x00, 0x00, 
    0x58, 0x03, 0x00, 0x00, 0xe4, 0x02, 0x00, 0x00, 0x80, 0x02, 0x00, 0x00, 
    0xf4, 0x01, 0x00, 0x00, 0x80, 0x01, 0x00, 0x00, 0xf4, 0x00, 0x00, 0x00, 
    0x80, 0x00, 0x00, 0x00, 0x04, 0x00, 0x00, 0x00, 0xfa, 0xfa, 0xff, 0xff, 
    0x00, 0x00, 0x00, 0x01, 0x18, 0x00, 0x00, 0x00, 0x20, 0x00, 0x00, 0x00, 
    0x3c, 0x00, 0x00, 0x00, 0x0c, 0x00, 0x00, 0x00, 0x00, 0x00, 0x00, 0x09, 
    0x50, 0x00, 0x00, 0x00, 0x02, 0x00, 0x00, 0x00, 0xff, 0xff, 0xff, 0xff, 
    0x02, 0x00, 0x00, 0x00, 0xe4, 0xfa, 0xff, 0xff, 0x08, 0x00, 0x00, 0x00, 
    0x10, 0x00, 0x00, 0x00, 0x01, 0x00, 0x00, 0x00, 0xf8, 0xff, 0xff, 0xff, 
    0xff, 0xff, 0xff, 0xff, 0x01, 0x00, 0x00, 0x00, 0x4c, 0x0c, 0x0a, 0x3d, 
    0x19, 0x00, 0x00, 0x00, 0x53, 0x74, 0x61, 0x74, 0x65, 0x66, 0x75, 0x6c, 
    0x50, 0x61, 0x72, 0x74, 0x69, 0x74, 0x69, 0x6f, 0x6e, 0x65, 0x64, 0x43, 
    0x61, 0x6c, 0x6c, 0x3a, 0x30, 0x00, 0x00, 0x00, 0x02, 0x00, 0x00, 0x00, 
    0x01, 0x00, 0x00, 0x00, 0x02, 0x00, 0x00, 0x00, 0x72, 0xfb, 0xff, 0xff, 
    0x00, 0x00, 0x00, 0x01, 0x18, 0x00, 0x00, 0x00, 0x20, 0x00, 0x00, 0x00, 
    0x3c, 0x00, 0x00, 0x00, 0x0b, 0x00, 0x00, 0x00, 0x00, 0x00, 0x00, 0x09, 
    0x48, 0x00, 0x00, 0x00, 0x02, 0x00, 0x00, 0x00, 0xff, 0xff, 0xff, 0xff, 
    0x40, 0x00, 0x00, 0x00, 0x5c, 0xfb, 0xff, 0xff, 0x08, 0x00, 0x00, 0x00, 
    0x10, 0x00, 0x00, 0x00, 0x01, 0x00, 0x00, 0x00, 0x00, 0x00, 0x00, 0x00, 
    0x00, 0x00, 0x00, 0x00, 0x01, 0x00, 0x00, 0x00, 0x00, 0x00, 0x00, 0x3c, 
    0x12, 0x00, 0x00, 0x00, 0x6d, 0x6f, 0x64, 0x65, 0x6c, 0x2f, 0x64, 0x65, 
    0x6e, 0x73, 0x65, 0x5f, 0x31, 0x2f, 0x54, 0x61, 0x6e, 0x68, 0x00, 0x00, 
    0x02, 0x00, 0x00, 0x00, 0x01, 0x00, 0x00, 0x00, 0x40, 0x00, 0x00, 0x00, 
    0xe2, 0xfb, 0xff, 0xff, 0x00, 0x00, 0x00, 0x01, 0x18, 0x00, 0x00, 0x00, 
    0x20, 0x00, 0x00, 0x00, 0x3c, 0x00, 0x00, 0x00, 0x0a, 0x00, 0x00, 0x00, 
    0x00, 0x00, 0x00, 0x09, 0x60, 0x00, 0x00, 0x00, 0x02, 0x00, 0x00, 0x00, 
    0xff, 0xff, 0xff, 0xff, 0x40, 0x00, 0x00, 0x00, 0xcc, 0xfb, 0xff, 0xff, 
    0x08, 0x00, 0x00, 0x00, 0x10, 0x00, 0x00, 0x00, 0x01, 0x00, 0x00, 0x00, 
    0xff, 0xff, 0xff, 0xff, 0xff, 0xff, 0xff, 0xff, 0x01, 0x00, 0x00, 0x00, 
    0x1c, 0x23, 0xb7, 0x3b, 0x2a, 0x00, 0x00, 0x00, 0x6d, 0x6f, 0x64, 0x65, 
    0x6c, 0x2f, 0x64, 0x65, 0x6e, 0x73, 0x65, 0x5f, 0x31, 0x2f, 0x4d, 0x61, 
    0x74, 0x4d, 0x75, 0x6c, 0x3b, 0x6d, 0x6f, 0x64, 0x65, 0x6c, 0x2f, 0x64, 
    0x65, 0x6e, 0x73, 0x65, 0x5f, 0x31, 0x2f, 0x42, 0x69, 0x61, 0x73, 0x41, 
    0x64, 0x64, 0x00, 0x00, 0x02, 0x00, 0x00, 0x00, 0x01, 0x00, 0x00, 0x00, 
    0x40, 0x00, 0x00, 0x00, 0x6a, 0xfc, 0xff, 0xff, 0x00, 0x00, 0x00, 0x01, 
    0x18, 0x00, 0x00, 0x00, 0x20, 0x00, 0x00, 0x00, 0x3c, 0x00, 0x00, 0x00, 
    0x09, 0x00, 0x00, 0x00, 0x00, 0x00, 0x00, 0x09, 0x48, 0x00, 0x00, 0x00, 
    0x02, 0x00, 0x00, 0x00, 0xff, 0xff, 0xff, 0xff, 0x40, 0x00, 0x00, 0x00, 
    0x54, 0xfc, 0xff, 0xff, 0x08, 0x00, 0x00, 0x00, 0x10, 0x00, 0x00, 0x00, 
    0x01, 0x00, 0x00, 0x00, 0x00, 0x00, 0x00, 0x00, 0x00, 0x00, 0x00, 0x00, 
    0x01, 0x00, 0x00, 0x00, 0x00, 0x00, 0x00, 0x3c, 0x10, 0x00, 0x00, 0x00, 
    0x6d, 0x6f, 0x64, 0x65, 0x6c, 0x2f, 0x64, 0x65, 0x6e, 0x73, 0x65, 0x2f, 
    0x54, 0x61, 0x6e, 0x68, 0x00, 0x00, 0x00, 0x00, 0x02, 0x00, 0x00, 0x00, 
    0x01, 0x00, 0x00, 0x00, 0x40, 0x00, 0x00, 0x00, 0xda, 0xfc, 0xff, 0xff, 
    0x00, 0x00, 0x00, 0x01, 0x18, 0x00, 0x00, 0x00, 0x20, 0x00, 0x00, 0x00, 
    0x40, 0x00, 0x00, 0x00, 0x08, 0x00, 0x00, 0x00, 0x00, 0x00, 0x00, 0x09, 
    0x60, 0x00, 0x00, 0x00, 0x02, 0x00, 0x00, 0x00, 0xff, 0xff, 0xff, 0xff, 
    0x40, 0x00, 0x00, 0x00, 0xc4, 0xfc, 0xff, 0xff, 0x08, 0x00, 0x00, 0x00, 
    0x14, 0x00, 0x00, 0x00, 0x01, 0x00, 0x00, 0x00, 0x07, 0x00, 0x00, 0x00, 
    0x00, 0x00, 0x00, 0x00, 0x00, 0x00, 0x00, 0x00, 0x01, 0x00, 0x00, 0x00, 
    0xaa, 0x8d, 0x2b, 0x3b, 0x26, 0x00, 0x00, 0x00, 0x6d, 0x6f, 0x64, 0x65, 
    0x6c, 0x2f, 0x64, 0x65, 0x6e, 0x73, 0x65, 0x2f, 0x4d, 0x61, 0x74, 0x4d, 
    0x75, 0x6c, 0x3b, 0x6d, 0x6f, 0x64, 0x65, 0x6c, 0x2f, 0x64, 0x65, 0x6e, 
    0x73, 0x65, 0x2f, 0x42, 0x69, 0x61, 0x73, 0x41, 0x64, 0x64, 0x00, 0x00, 
    0x02, 0x00, 0x00, 0x00, 0x01, 0x00, 0x00, 0x00, 0x40, 0x00, 0x00, 0x00, 
    0xee, 0xfd, 0xff, 0xff, 0x00, 0x00, 0x00, 0x01, 0x14, 0x00, 0x00, 0x00, 
    0x30, 0x00, 0x00, 0x00, 0x07, 0x00, 0x00, 0x00, 0x00, 0x00, 0x00, 0x09, 
    0x3c, 0x00, 0x00, 0x00, 0x3c, 0xfd, 0xff, 0xff, 0x08, 0x00, 0x00, 0x00, 
    0x10, 0x00, 0x00, 0x00, 0x01, 0x00, 0x00, 0x00, 0x00, 0x00, 0x00, 0x00, 
    0x00, 0x00, 0x00, 0x00, 0x01, 0x00, 0x00, 0x00, 0xd2, 0x81, 0xaa, 0x3b, 
    0x12, 0x00, 0x00, 0x00, 0x6d, 0x6f, 0x64, 0x65, 0x6c, 0x2f, 0x64, 0x65, 
    0x6e, 0x73, 0x65, 0x2f, 0x4d, 0x61, 0x74, 0x4d, 0x75, 0x6c, 0x00, 0x00, 
    0x02, 0x00, 0x00, 0x00, 0x40, 0x00, 0x00, 0x00, 0x04, 0x00, 0x00, 0x00, 
    0x4e, 0xfe, 0xff, 0xff, 0x00, 0x00, 0x00, 0x01, 0x14, 0x00, 0x00, 0x00, 
    0x34, 0x00, 0x00, 0x00, 0x06, 0x00, 0x00, 0x00, 0x00, 0x00, 0x00, 0x02, 
    0x50, 0x00, 0x00, 0x00, 0x9c, 0xfd, 0xff, 0xff, 0x08, 0x00, 0x00, 0x00, 
    0x14, 0x00, 0x00, 0x00, 0x01, 0x00, 0x00, 0x00, 0x00, 0x00, 0x00, 0x00, 
    0x00, 0x00, 0x00, 0x00, 0x00, 0x00, 0x00, 0x00, 0x01, 0x00, 0x00, 0x00, 
    0x2c, 0xe3, 0xc9, 0x37, 0x22, 0x00, 0x00, 0x00, 0x6d, 0x6f, 0x64, 0x65, 
    0x6c, 0x2f, 0x64, 0x65, 0x6e, 0x73, 0x65, 0x2f, 0x42, 0x69, 0x61, 0x73, 
    0x41, 0x64, 0x64, 0x2f, 0x52, 0x65, 0x61, 0x64, 0x56, 0x61, 0x72, 0x69, 
    0x61, 0x62, 0x6c, 0x65, 0x4f, 0x70, 0x00, 0x00, 0x01, 0x00, 0x00, 0x00, 
    0x40, 0x00, 0x00, 0x00, 0xbe, 0xfe, 0xff, 0xff, 0x00, 0x00, 0x00, 0x01, 
    0x14, 0x00, 0x00, 0x00, 0x34, 0x00, 0x00, 0x00, 0x05, 0x00, 0x00, 0x00, 
    0x00, 0x00, 0x00, 0x09, 0x44, 0x00, 0x00, 0x00, 0x0c, 0xfe, 0xff, 0xff, 
    0x08, 0x00, 0x00, 0x00, 0x14, 0x00, 0x00, 0x00, 0x01, 0x00, 0x00, 0x00, 
    0x00, 0x00, 0x00, 0x00, 0x00, 0x00, 0x00, 0x00, 0x00, 0x00, 0x00, 0x00, 
    0x01, 0x00, 0x00, 0x00, 0x90, 0x07, 0x91, 0x3b, 0x14, 0x00, 0x00, 0x00, 
    0x6d, 0x6f, 0x64, 0x65, 0x6c, 0x2f, 0x64, 0x65, 0x6e, 0x73, 0x65, 0x5f, 
    0x31, 0x2f, 0x4d, 0x61, 0x74, 0x4d, 0x75, 0x6c, 0x00, 0x00, 0x00, 0x00, 
    0x02, 0x00, 0x00, 0x00, 0x40, 0x00, 0x00, 0x00, 0x40, 0x00, 0x00, 0x00, 
    0x26, 0xff, 0xff, 0xff, 0x00, 0x00, 0x00, 0x01, 0x14, 0x00, 0x00, 0x00, 
    0x30, 0x00, 0x00, 0x00, 0x04, 0x00, 0x00, 0x00, 0x00, 0x00, 0x00, 0x02, 
    0x50, 0x00, 0x00, 0x00, 0x74, 0xfe, 0xff, 0xff, 0x08, 0x00, 0x00, 0x00, 
    0x10, 0x00, 0x00, 0x00, 0x01, 0x00, 0x00, 0x00, 0x00, 0x00, 0x00, 0x00, 
    0x00, 0x00, 0x00, 0x00, 0x01, 0x00, 0x00, 0x00, 0x90, 0x07, 0x11, 0x38, 
    0x24, 0x00, 0x00, 0x00, 0x6d, 0x6f, 0x64, 0x65, 0x6c, 0x2f, 0x64, 0x65, 
    0x6e, 0x73, 0x65, 0x5f, 0x31, 0x2f, 0x42, 0x69, 0x61, 0x73, 0x41, 0x64, 
    0x64, 0x2f, 0x52, 0x65, 0x61, 0x64, 0x56, 0x61, 0x72, 0x69, 0x61, 0x62, 
    0x6c, 0x65, 0x4f, 0x70, 0x00, 0x00, 0x00, 0x00, 0x01, 0x00, 0x00, 0x00, 
    0x40, 0x00, 0x00, 0x00, 0x96, 0xff, 0xff, 0xff, 0x00, 0x00, 0x00, 0x01, 
    0x14, 0x00, 0x00, 0x00, 0x34, 0x00, 0x00, 0x00, 0x03, 0x00, 0x00, 0x00, 
    0x00, 0x00, 0x00, 0x09, 0x44, 0x00, 0x00, 0x00, 0xe4, 0xfe, 0xff, 0xff, 
    0x08, 0x00, 0x00, 0x00, 0x14, 0x00, 0x00, 0x00, 0x01, 0x00, 0x00, 0x00, 
    0x00, 0x00, 0x00, 0x00, 0x00, 0x00, 0x00, 0x00, 0x00, 0x00, 0x00, 0x00, 
    0x01, 0x00, 0x00, 0x00, 0xeb, 0x34, 0x8a, 0x3b, 0x14, 0x00, 0x00, 0x00, 
    0x6d, 0x6f, 0x64, 0x65, 0x6c, 0x2f, 0x64, 0x65, 0x6e, 0x73, 0x65, 0x5f, 
    0x32, 0x2f, 0x4d, 0x61, 0x74, 0x4d, 0x75, 0x6c, 0x00, 0x00, 0x00, 0x00, 
    0x02, 0x00, 0x00, 0x00, 0x02, 0x00, 0x00, 0x00, 0x40, 0x00, 0x00, 0x00, 
    0x00, 0x00, 0x16, 0x00, 0x1c, 0x00, 0x18, 0x00, 0x17, 0x00, 0x10, 0x00, 
    0x0c, 0x00, 0x08, 0x00, 0x00, 0x00, 0x00, 0x00, 0x00, 0x00, 0x07, 0x00, 
    0x16, 0x00, 0x00, 0x00, 0x00, 0x00, 0x00, 0x01, 0x14, 0x00, 0x00, 0x00, 
    0x34, 0x00, 0x00, 0x00, 0x02, 0x00, 0x00, 0x00, 0x00, 0x00, 0x00, 0x02, 
    0x54, 0x00, 0x00, 0x00, 0x64, 0xff, 0xff, 0xff, 0x08, 0x00, 0x00, 0x00, 
    0x14, 0x00, 0x00, 0x00, 0x01, 0x00, 0x00, 0x00, 0x00, 0x00, 0x00, 0x00, 
    0x00, 0x00, 0x00, 0x00, 0x00, 0x00, 0x00, 0x00, 0x01, 0x00, 0x00, 0x00, 
    0xeb, 0x34, 0x0a, 0x38, 0x24, 0x00, 0x00, 0x00, 0x6d, 0x6f, 0x64, 0x65, 
    0x6c, 0x2f, 0x64, 0x65, 0x6e, 0x73, 0x65, 0x5f, 0x32, 0x2f, 0x42, 0x69, 
    0x61, 0x73, 0x41, 0x64, 0x64, 0x2f, 0x52, 0x65, 0x61, 0x64, 0x56, 0x61, 
    0x72, 0x69, 0x61, 0x62, 0x6c, 0x65, 0x4f, 0x70, 0x00, 0x00, 0x00, 0x00, 
    0x01, 0x00, 0x00, 0x00, 0x02, 0x00, 0x00, 0x00, 0x00, 0x00, 0x16, 0x00, 
    0x20, 0x00, 0x1c, 0x00, 0x1b, 0x00, 0x14, 0x00, 0x10, 0x00, 0x0c, 0x00, 
    0x00, 0x00, 0x00, 0x00, 0x08, 0x00, 0x07, 0x00, 0x16, 0x00, 0x00, 0x00, 
    0x00, 0x00, 0x00, 0x01, 0x18, 0x00, 0x00, 0x00, 0x2c, 0x00, 0x00, 0x00, 
    0x4c, 0x00, 0x00, 0x00, 0x01, 0x00, 0x00, 0x00, 0x00, 0x00, 0x00, 0x09, 
    0x60, 0x00, 0x00, 0x00, 0x02, 0x00, 0x00, 0x00, 0xff, 0xff, 0xff, 0xff, 
    0x04, 0x00, 0x00, 0x00, 0x0c, 0x00, 0x0c, 0x00, 0x00, 0x00, 0x00, 0x00, 
    0x08, 0x00, 0x04, 0x00, 0x0c, 0x00, 0x00, 0x00, 0x08, 0x00, 0x00, 0x00, 
    0x14, 0x00, 0x00, 0x00, 0x01, 0x00, 0x00, 0x00, 0xfe, 0xff, 0xff, 0xff, 
    0xff, 0xff, 0xff, 0xff, 0x00, 0x00, 0x00, 0x00, 0x01, 0x00, 0x00, 0x00, 
    0xa7, 0x8e, 0x97, 0x3b, 0x19, 0x00, 0x00, 0x00, 0x73, 0x65, 0x72, 0x76, 
    0x69, 0x6e, 0x67, 0x5f, 0x64, 0x65, 0x66, 0x61, 0x75, 0x6c, 0x74, 0x5f, 
    0x69, 0x6e, 0x70, 0x75, 0x74, 0x5f, 0x31, 0x3a, 0x30, 0x00, 0x00, 0x00, 
    0x02, 0x00, 0x00, 0x00, 0x01, 0x00, 0x00, 0x00, 0x04, 0x00, 0x00, 0x00, 
    0x02, 0x00, 0x00, 0x00, 0x24, 0x00, 0x00, 0x00, 0x04, 0x00, 0x00, 0x00, 
    0xf0, 0xff, 0xff, 0xff, 0x1c, 0x00, 0x00, 0x00, 0x02, 0x00, 0x00, 0x00, 
    0x00, 0x00, 0x00, 0x1c, 0x0c, 0x00, 0x10, 0x00, 0x0f, 0x00, 0x00, 0x00, 
    0x08, 0x00, 0x04, 0x00, 0x0c, 0x00, 0x00, 0x00, 0x09, 0x00, 0x00, 0x00, 
    0x04, 0x00, 0x00, 0x00, 0x00, 0x00, 0x00, 0x09, 
};
unsigned int actor_quant_tflite_len = 7472;